{
  "version": "1.0",
  "truncation": null,
  "padding": null,
  "added_tokens": [],
  "normalizer": null,
  "pre_tokenizer": {
    "type": "Whitespace"
  },
  "post_processor": {
    "type": "TemplateProcessing",
    "single": [
      {
        "SpecialToken": {
          "id": "[CLS]",
          "type_id": 0
        }
      },
      {
        "Sequence": {
          "id": "A",
          "type_id": 0
        }
      },
      {
        "SpecialToken": {
          "id": "[SEP]",
          "type_id": 0
        }
      }
    ],
    "pair": [
      {
        "SpecialToken": {
          "id": "[CLS]",
          "type_id": 0
        }
      },
      {
        "Sequence": {
          "id": "A",
          "type_id": 0
        }
      },
      {
        "SpecialToken": {
          "id": "[SEP]",
          "type_id": 0
        }
      },
      {
        "Sequence": {
          "id": "B",
          "type_id": 1
        }
      },
      {
        "SpecialToken": {
          "id": "[SEP]",
          "type_id": 1
        }
      }
    ],
    "special_tokens": {
      "[CLS]": {
        "id": "[CLS]",
        "ids": [
          1
        ],
        "tokens": [
          "[CLS]"
        ]
      },
      "[SEP]": {
        "id": "[SEP]",
        "ids": [
          2
        ],
        "tokens": [
          "[SEP]"
        ]
      }
    }
  },
  "decoder": {
    "type": "ByteLevel",
    "add_prefix_space": true,
    "trim_offsets": true,
    "use_regex": true
  },
  "model": {
    "type": "BPE",
    "dropout": null,
    "unk_token": null,
    "continuing_subword_prefix": null,
    "end_of_word_suffix": null,
    "fuse_unk": false,
    "byte_fallback": false,
    "ignore_merges": false,
    "vocab": {
      "\"": 0,
      "%": 1,
      "'": 2,
      "(": 3,
      ")": 4,
      "+": 5,
      ",": 6,
      "-": 7,
      ".": 8,
      "/": 9,
      "0": 10,
      "1": 11,
      "2": 12,
      "3": 13,
      "4": 14,
      "5": 15,
      "6": 16,
      "7": 17,
      "8": 18,
      "9": 19,
      ":": 20,
      ";": 21,
      "=": 22,
      "?": 23,
      "A": 24,
      "B": 25,
      "C": 26,
      "D": 27,
      "E": 28,
      "F": 29,
      "G": 30,
      "H": 31,
      "I": 32,
      "K": 33,
      "L": 34,
      "M": 35,
      "N": 36,
      "O": 37,
      "P": 38,
      "R": 39,
      "S": 40,
      "T": 41,
      "U": 42,
      "V": 43,
      "X": 44,
      "Y": 45,
      "Z": 46,
      "a": 47,
      "b": 48,
      "c": 49,
      "d": 50,
      "e": 51,
      "f": 52,
      "g": 53,
      "h": 54,
      "i": 55,
      "j": 56,
      "k": 57,
      "l": 58,
      "m": 59,
      "n": 60,
      "o": 61,
      "p": 62,
      "r": 63,
      "s": 64,
      "t": 65,
      "u": 66,
      "v": 67,
      "y": 68,
      "z": 69,
      "­": 70,
      "Ç": 71,
      "Ö": 72,
      "Ü": 73,
      "â": 74,
      "ç": 75,
      "î": 76,
      "ö": 77,
      "ü": 78,
      "Ğ": 79,
      "ğ": 80,
      "İ": 81,
      "ı": 82,
      "Ş": 83,
      "ş": 84,
      "​": 85,
      "–": 86,
      "‘": 87,
      "’": 88,
      "“": 89,
      "”": 90,
      "…": 91,
      "in": 92,
      "ın": 93,
      "ar": 94,
      "er": 95,
      "da": 96,
      "de": 97,
      "il": 98,
      "al": 99,
      "an": 100,
      "iş": 101,
      "ma": 102,
      "es": 103,
      "ir": 104,
      "en": 105,
      "dav": 106,
      "un": 107,
      "ak": 108,
      "ek": 109,
      "ol": 110,
      "ının": 111,
      "inde": 112,
      "ac": 113,
      "ıl": 114,
      "et": 115,
      "inin": 116,
      "ya": 117,
      "dı": 118,
      "alı": 119,
      "sı": 120,
      "di": 121,
      "em": 122,
      "ve": 123,
      "li": 124,
      "ver": 125,
      "le": 126,
      "esi": 127,
      "ne": 128,
      "davac": 129,
      "sa": 130,
      "ine": 131,
      "dığ": 132,
      "ka": 133,
      "or": 134,
      "kar": 135,
      "ında": 136,
      "ler": 137,
      "lar": 138,
      "den": 139,
      "ra": 140,
      "ul": 141,
      "be": 142,
      "tar": 143,
      "erek": 144,
      "ge": 145,
      "ed": 146,
      "ür": 147,
      "ilm": 148,
      "20": 149,
      "ile": 150,
      "iz": 151,
      "karar": 152,
      "esh": 153,
      "lı": 154,
      "davacının": 155,
      "is": 156,
      "fesh": 157,
      "du": 158,
      "ta": 159,
      "ği": 160,
      "ini": 161,
      "ce": 162,
      "arak": 163,
      "çer": 164,
      "Da": 165,
      "tir": 166,
      "ih": 167,
      "gerek": 168,
      "por": 169,
      "rapor": 170,
      "tı": 171,
      "neden": 172,
      "la": 173,
      "yer": 174,
      "bir": 175,
      "dığı": 176,
      "davalı": 177,
      "gö": 178,
      "lan": 179,
      "Dav": 180,
      "te": 181,
      "201": 182,
      "ına": 183,
      "on": 184,
      "veren": 185,
      "ili": 186,
      "geçer": 187,
      "ını": 188,
      "tarih": 189,
      "um": 190,
      "se": 191,
      "ından": 192,
      "bul": 193,
      "ması": 194,
      "dir": 195,
      "ün": 196,
      "ha": 197,
      "yan": 198,
      "alın": 199,
      "ay": 200,
      "yap": 201,
      "des": 202,
      "sık": 203,
      "işveren": 204,
      "iştir": 205,
      "gör": 206,
      "duğ": 207,
      "ye": 208,
      "kem": 209,
      "hkem": 210,
      "ılı": 211,
      "ğı": 212,
      "sebe": 213,
      "aş": 214,
      "işç": 215,
      "su": 216,
      "esih": 217,
      "öz": 218,
      "mes": 219,
      "fesih": 220,
      "sür": 221,
      "alış": 222,
      "hak": 223,
      "diğ": 224,
      "olarak": 225,
      "verilm": 226,
      "eti": 227,
      "ış": 228,
      "mak": 229,
      "mas": 230,
      "İş": 231,
      "vek": 232,
      "yle": 233,
      "dan": 234,
      "Ma": 235,
      "leş": 236,
      "dır": 237,
      "hal": 238,
      "geçerli": 239,
      "unu": 240,
      "gi": 241,
      "davacı": 242,
      "bu": 243,
      "çalış": 244,
      "say": 245,
      "len": 246,
      "Mahkem": 247,
      "ur": 248,
      "anın": 249,
      "olduğ": 250,
      "af": 251,
      "yar": 252,
      "işyer": 253,
      "mad": 254,
      "ki": 255,
      "lık": 256,
      "bel": 257,
      "söz": 258,
      "Davac": 259,
      "aç": 260,
      "iç": 261,
      "me": 262,
      "ti": 263,
      "ük": 264,
      "st": 265,
      "ık": 266,
      "ön": 267,
      "gerekç": 268,
      "..": 269,
      "göre": 270,
      "inden": 271,
      "sözleş": 272,
      "am": 273,
      "işçinin": 274,
      "dayan": 275,
      "edil": 276,
      "belir": 277,
      "işe": 278,
      "as": 279,
      "im": 280,
      "Kan": 281,
      "baş": 282,
      "diği": 283,
      "son": 284,
      "bil": 285,
      "siz": 286,
      "at": 287,
      "sebep": 288,
      "maddes": 289,
      "ama": 290,
      "bulun": 291,
      "feshin": 292,
      "sız": 293,
      "der": 294,
      "diğini": 295,
      "olma": 296,
      "taraf": 297,
      "uk": 298,
      "tarihinde": 299,
      "dığını": 300,
      "işyerinde": 301,
      "tem": 302,
      "endi": 303,
      "sayılı": 304,
      "üc": 305,
      "ia": 306,
      "gün": 307,
      "48": 308,
      "57": 309,
      "yiz": 310,
      "4857": 311,
      "vun": 312,
      "miştir": 313,
      "mesinin": 314,
      "savun": 315,
      "üz": 316,
      "kabul": 317,
      "dur": 318,
      "olduğu": 319,
      "nedeni": 320,
      "uş": 321,
      "leri": 322,
      "lik": 323,
      "TL": 324,
      "bi": 325,
      "süre": 326,
      "arar": 327,
      "ca": 328,
      "tığı": 329,
      "masına": 330,
      "yet": 331,
      "Öz": 332,
      "halinde": 333,
      "Karar": 334,
      "ere": 335,
      "suz": 336,
      "ilen": 337,
      "edilm": 338,
      "hat": 339,
      "davanın": 340,
      "olum": 341,
      "dev": 342,
      "Özeti": 343,
      "olumsuz": 344,
      "mü": 345,
      "unun": 346,
      "kal": 347,
      "Kanunu": 348,
      "iades": 349,
      "yapıl": 350,
      "os": 351,
      "ücr": 352,
      "devam": 353,
      "belirt": 354,
      "kı": 355,
      "nun": 356,
      "esine": 357,
      "tır": 358,
      "uy": 359,
      "vekili": 360,
      "sözleşmesinin": 361,
      "red": 362,
      "lanan": 363,
      "öl": 364,
      "mesi": 365,
      "feshedil": 366,
      "ran": 367,
      "mış": 368,
      "Davacının": 369,
      "davran": 370,
      "ten": 371,
      "durum": 372,
      "ağı": 373,
      "eş": 374,
      "uyar": 375,
      "tarafından": 376,
      "ılama": 377,
      "davranış": 378,
      "haklı": 379,
      "akd": 380,
      "har": 381,
      "eme": 382,
      "Davacı": 383,
      "makta": 384,
      "iadesine": 385,
      "irk": 386,
      "yarg": 387,
      "nedenle": 388,
      "25": 389,
      "için": 390,
      "üm": 391,
      "temyiz": 392,
      "şek": 393,
      "kay": 394,
      "bo": 395,
      "esin": 396,
      "Davalı": 397,
      "gider": 398,
      "madığı": 399,
      "yargılama": 400,
      "ları": 401,
      "davalıya": 402,
      "açık": 403,
      "00": 404,
      "sendi": 405,
      "ınca": 406,
      "kon": 407,
      "osya": 408,
      "bildir": 409,
      "ut": 410,
      "tal": 411,
      "harc": 412,
      "eşin": 413,
      "iler": 414,
      "usu": 415,
      "anla": 416,
      "uyarınca": 417,
      "yaptığı": 418,
      "ece": 419,
      "unda": 420,
      "ik": 421,
      "veya": 422,
      "geçersiz": 423,
      "yaz": 424,
      "lara": 425,
      "içinde": 426,
      "akdinin": 427,
      "değ": 428,
      "şekil": 429,
      "gerekçe": 430,
      "yeter": 431,
      "...": 432,
      "vur": 433,
      "tale": 434,
      "işk": 435,
      "davacıdan": 436,
      "liğ": 437,
      "zm": 438,
      "maddesi": 439,
      "giderinin": 440,
      "boz": 441,
      "şekilde": 442,
      "ilişk": 443,
      "ül": 444,
      "olu": 445,
      "op": 446,
      "larının": 447,
      "sebepler": 448,
      "luk": 449,
      "veril": 450,
      "gerekçesi": 451,
      "zmin": 452,
      "tazmin": 453,
      "maktadır": 454,
      "liği": 455,
      "mesine": 456,
      "18": 457,
      "redd": 458,
      "olup": 459,
      "öden": 460,
      "bar": 461,
      "kabulü": 462,
      "yol": 463,
      "başvur": 464,
      "daval": 465,
      "etmiştir": 466,
      "nedeniyle": 467,
      "el": 468,
      "masının": 469,
      "olan": 470,
      "İN": 471,
      "verilmiştir": 472,
      "olumsuzluk": 473,
      "us": 474,
      "alan": 475,
      "içer": 476,
      "şıl": 477,
      "nak": 478,
      "yıl": 479,
      "hast": 480,
      "kan": 481,
      "enin": 482,
      "etk": 483,
      "az": 484,
      "anlaşıl": 485,
      "aldığı": 486,
      "ok": 487,
      "kaynak": 488,
      "hük": 489,
      "dene": 490,
      "sal": 491,
      "ölge": 492,
      "İNE": 493,
      "hs": 494,
      "liye": 495,
      "dliye": 496,
      "üş": 497,
      "ilg": 498,
      "ücret": 499,
      "Mahkemesi": 500,
      "olumsuzluklara": 501,
      "Bölge": 502,
      "2016": 503,
      "it": 504,
      "olduğunu": 505,
      "asında": 506,
      "nedene": 507,
      "ukar": 508,
      "alıdır": 509,
      "alınan": 510,
      "işverenin": 511,
      "lu": 512,
      "daki": 513,
      "id": 514,
      "ıs": 515,
      "devamsız": 516,
      "yazılı": 517,
      "yen": 518,
      "larından": 519,
      "Bu": 520,
      "bildirim": 521,
      "Adliye": 522,
      "esinde": 523,
      "kaynaklanan": 524,
      "arasında": 525,
      "alınarak": 526,
      "ceği": 527,
      "rı": 528,
      "tahs": 529,
      "yür": 530,
      "müvek": 531,
      "dar": 532,
      "müvekk": 533,
      "2013": 534,
      "raporlar": 535,
      "uyg": 536,
      "nedenler": 537,
      "iddi": 538,
      "ist": 539,
      "cak": 540,
      "çalışma": 541,
      "kararının": 542,
      "talep": 543,
      "ır": 544,
      "ab": 545,
      "yapılan": 546,
      "üzer": 547,
      "acak": 548,
      "ör": 549,
      "lili": 550,
      "ğını": 551,
      "davalının": 552,
      "başla": 553,
      "kadar": 554,
      "lük": 555,
      "una": 556,
      "verilmesi": 557,
      "tan": 558,
      "mal": 559,
      "2014": 560,
      "tazminat": 561,
      "tur": 562,
      "harcının": 563,
      "ilinin": 564,
      "sağ": 565,
      "kul": 566,
      "likte": 567,
      "belirtilen": 568,
      "han": 569,
      "inaf": 570,
      "per": 571,
      "İst": 572,
      "yön": 573,
      "feshedildiğini": 574,
      "mek": 575,
      "şirk": 576,
      "verilmesine": 577,
      "if": 578,
      "mahkem": 579,
      "dığından": 580,
      "ise": 581,
      "oğ": 582,
      "kullan": 583,
      "esini": 584,
      "hangi": 585,
      "07": 586,
      "şirket": 587,
      "dırıl": 588,
      "oy": 589,
      "yasal": 590,
      "reddine": 591,
      "gerekçesiyle": 592,
      "uştur": 593,
      "top": 594,
      "gel": 595,
      "tiğ": 596,
      "plan": 597,
      "diğer": 598,
      "dosya": 599,
      "AD": 600,
      "peşin": 601,
      "08": 602,
      "ıda": 603,
      "yeterlili": 604,
      "get": 605,
      "getir": 606,
      "iste": 607,
      "çe": 608,
      "sendikal": 609,
      "sonra": 610,
      "ilgili": 611,
      "bek": 612,
      "yor": 613,
      "maz": 614,
      "uç": 615,
      "tahsili": 616,
      "isp": 617,
      "gibi": 618,
      "görev": 619,
      "ücreti": 620,
      "olay": 621,
      "yük": 622,
      "davacıya": 623,
      "mem": 624,
      "esinin": 625,
      "alma": 626,
      "düz": 627,
      "lendir": 628,
      "IN": 629,
      "Mahkemece": 630,
      "2015": 631,
      "tiği": 632,
      "ilişkis": 633,
      "çalışan": 634,
      "kesin": 635,
      "Kararının": 636,
      "verildi": 637,
      "Tem": 638,
      "alması": 639,
      "11": 640,
      "lk": 641,
      "eye": 642,
      "karş": 643,
      "mut": 644,
      "AS": 645,
      "İlk": 646,
      "sağlık": 647,
      "bulunan": 648,
      "MAS": 649,
      "INA": 650,
      "MASINA": 651,
      "düş": 652,
      "LMASINA": 653,
      "ukarıda": 654,
      "ni": 655,
      "maddesinde": 656,
      "sebebi": 657,
      "durumun": 658,
      "savunma": 659,
      "BO": 660,
      "ZU": 661,
      "BOZU": 662,
      "birliği": 663,
      "belirlen": 664,
      "arka": 665,
      "ırak": 666,
      "lem": 667,
      "işçi": 668,
      "sebebe": 669,
      "tığını": 670,
      "bırak": 671,
      "Dair": 672,
      "geçersizliğ": 673,
      "aşağı": 674,
      "10": 675,
      "sının": 676,
      "iğ": 677,
      "yerinde": 678,
      "ince": 679,
      "aylık": 680,
      "oybirliği": 681,
      "ancak": 682,
      "01": 683,
      "ağ": 684,
      "dik": 685,
      "geç": 686,
      "aşağıdaki": 687,
      "düzen": 688,
      "ılmasına": 689,
      "üzerinde": 690,
      "dür": 691,
      "ileri": 692,
      "süresi": 693,
      "yürür": 694,
      "ispat": 695,
      "acağı": 696,
      "Temyiz": 697,
      "AN": 698,
      "KA": 699,
      "verilmesini": 700,
      "rahat": 701,
      "men": 702,
      "emiz": 703,
      "rahatsız": 704,
      "lükte": 705,
      "yürürlükte": 706,
      "kap": 707,
      "devamsızlık": 708,
      "önem": 709,
      "RI": 710,
      "DI": 711,
      "LDI": 712,
      "KALDI": 713,
      "RILMASINA": 714,
      "KALDIRILMASINA": 715,
      "Mahkemenin": 716,
      "isteği": 717,
      "OR": 718,
      "TAD": 719,
      "ORTAD": 720,
      "ORTADAN": 721,
      "AR": 722,
      "bırakılmasına": 723,
      "işverence": 724,
      "AK": 725,
      "LAR": 726,
      "üğ": 727,
      "BOZULAR": 728,
      "BOZULARAK": 729,
      "ev": 730,
      "içeriğ": 731,
      "olması": 732,
      "lerin": 733,
      "Dairemiz": 734,
      "Gerek": 735,
      "alık": 736,
      "çek": 737,
      "iddia": 738,
      "huk": 739,
      "ğinden": 740,
      "09": 741,
      "RE": 742,
      "so": 743,
      "olmadığı": 744,
      "Dosya": 745,
      "tarif": 746,
      "orta": 747,
      "iti": 748,
      "davranışlarından": 749,
      "tarifeye": 750,
      "hastalan": 751,
      "çok": 752,
      "ısı": 753,
      "man": 754,
      "uc": 755,
      "doğ": 756,
      "ğının": 757,
      "dem": 758,
      "beklen": 759,
      "malıdır": 760,
      "dığına": 761,
      "12": 762,
      "dayandığı": 763,
      "dikka": 764,
      "06": 765,
      "başvurus": 766,
      "Peşin": 767,
      "istinaf": 768,
      "çı": 769,
      "asıl": 770,
      "sur": 771,
      "kur": 772,
      "ip": 773,
      "dikkate": 774,
      "kıdem": 775,
      "nite": 776,
      "kapsa": 777,
      "her": 778,
      "Dere": 779,
      "Derece": 780,
      "ilk": 781,
      "19": 782,
      "feshedildiği": 783,
      "içeriğine": 784,
      "Gerekçe": 785,
      "huku": 786,
      "Davanın": 787,
      "eminin": 788,
      "İsteminin": 789,
      "kabulüne": 790,
      "yerine": 791,
      "yeterliliğinden": 792,
      "konusu": 793,
      "beyan": 794,
      "feshedilm": 795,
      "Cev": 796,
      "tarihleri": 797,
      "davalıdan": 798,
      "uygun": 799,
      "abının": 800,
      "Cevabının": 801,
      "Kanun": 802,
      "erlendir": 803,
      "ünde": 804,
      "muştur": 805,
      "başlat": 806,
      "anlaşılmaktadır": 807,
      "müvekkilinin": 808,
      "hükm": 809,
      "kararın": 810,
      "tiğini": 811,
      "ilme": 812,
      "sözleşmesi": 813,
      "birlikte": 814,
      "yorum": 815,
      "gere": 816,
      "03": 817,
      "tu": 818,
      "ların": 819,
      "ğmen": 820,
      "rağmen": 821,
      "sayıl": 822,
      "bunun": 823,
      "yeni": 824,
      "nedenlerle": 825,
      "lere": 826,
      "ara": 827,
      "2012": 828,
      "İşç": 829,
      "emeye": 830,
      "05": 831,
      "ihbar": 832,
      "hakk": 833,
      "çıkar": 834,
      "ede": 835,
      "lerdir": 836,
      "makla": 837,
      "nı": 838,
      "duğu": 839,
      "irken": 840,
      "tes": 841,
      "for": 842,
      "art": 843,
      "kapsam": 844,
      "ger": 845,
      "değerlendir": 846,
      "DD": 847,
      "ödenmesine": 848,
      "REDD": 849,
      "REDDİNE": 850,
      "göst": 851,
      "göster": 852,
      "arç": 853,
      "sureti": 854,
      "cek": 855,
      "istem": 856,
      "açıs": 857,
      "itibar": 858,
      "lam": 859,
      "önce": 860,
      "feshinin": 861,
      "açısından": 862,
      "nasıl": 863,
      "makul": 864,
      "üye": 865,
      "üt": 866,
      "nin": 867,
      "Dairemizce": 868,
      "Mahkeme": 869,
      "görül": 870,
      "alet": 871,
      "açıklanan": 872,
      "aykı": 873,
      "yla": 874,
      "lerde": 875,
      "sendika": 876,
      "HÜ": 877,
      "KÜ": 878,
      "mıştır": 879,
      "HÜKÜ": 880,
      "HÜKÜM": 881,
      "savunmasının": 882,
      "ünü": 883,
      "vekalet": 884,
      "suretiyle": 885,
      "02": 886,
      "Ya": 887,
      "işverene": 888,
      "karşı": 889,
      "var": 890,
      "zor": 891,
      "toplam": 892,
      "dava": 893,
      "aynı": 894,
      "ulan": 895,
      "yorumlan": 896,
      "olmadığına": 897,
      "nel": 898,
      "alınmasına": 899,
      "geçersizliğine": 900,
      "Harç": 901,
      "yı": 902,
      "lerinde": 903,
      "kendi": 904,
      "nedir": 905,
      "hukuki": 906,
      "sonuc": 907,
      "hüküm": 908,
      "forman": 909,
      "verim": 910,
      "işten": 911,
      "larına": 912,
      "29": 913,
      "yeniden": 914,
      "planı": 915,
      "yorumlanmalıdır": 916,
      "tek": 917,
      "ılma": 918,
      "ilişkin": 919,
      "gereken": 920,
      "let": 921,
      "gerekçesinde": 922,
      "performan": 923,
      "atı": 924,
      "Sık": 925,
      "işyeri": 926,
      "reddi": 927,
      "mu": 928,
      "kaz": 929,
      "ıkra": 930,
      "aksa": 931,
      "madde": 932,
      "ci": 933,
      "ücü": 934,
      "ilişkisinin": 935,
      "bozul": 936,
      "alındığından": 937,
      "iye": 938,
      "etkile": 939,
      "fıkra": 940,
      "işçiler": 941,
      "04": 942,
      "Yasa": 943,
      "İşçinin": 944,
      "gerekirken": 945,
      "fa": 946,
      "sor": 947,
      "hatalıdır": 948,
      "17": 949,
      "izin": 950,
      "tak": 951,
      "müş": 952,
      "akış": 953,
      "II": 954,
      "ey": 955,
      "kaldırıl": 956,
      "istir": 957,
      "istira": 958,
      "aykırı": 959,
      "yukarıda": 960,
      "kararı": 961,
      "ıt": 962,
      "ettiği": 963,
      "sebeple": 964,
      "görü": 965,
      "larda": 966,
      "lidir": 967,
      "tut": 968,
      "İşveren": 969,
      "ölç": 970,
      "gü": 971,
      "uşmaz": 972,
      "ah": 973,
      "alt": 974,
      "tesp": 975,
      "bak": 976,
      "edi": 977,
      "tanık": 978,
      "mediği": 979,
      "istirahat": 980,
      "uşmazlık": 981,
      "gereğ": 982,
      "değiş": 983,
      "ılarak": 984,
      "şart": 985,
      "leme": 986,
      "lığı": 987,
      "madığını": 988,
      "derece": 989,
      "emeyeceği": 990,
      "del": 991,
      "ayrı": 992,
      "kendis": 993,
      "dayanmadığı": 994,
      "bilir": 995,
      "Kesin": 996,
      "ilam": 997,
      "halde": 998,
      "perso": 999,
      "So": 1000,
      "Somut": 1001,
      "üğü": 1002,
      "aca": 1003,
      "lerinin": 1004,
      "iade": 1005,
      "uyuşmazlık": 1006,
      "nek": 1007,
      "yon": 1008,
      "ven": 1009,
      "mesini": 1010,
      "bile": 1011,
      "örnek": 1012,
      "raporlu": 1013,
      "yılında": 1014,
      "öngörü": 1015,
      "düzenlen": 1016,
      "ım": 1017,
      "üy": 1018,
      "gerçek": 1019,
      "sında": 1020,
      "esince": 1021,
      "üml": 1022,
      "uçuş": 1023,
      "hakkı": 1024,
      "Yere": 1025,
      "yi": 1026,
      "Yerel": 1027,
      "dığının": 1028,
      "ram": 1029,
      "çalıştığı": 1030,
      "gerekmiştir": 1031,
      "ekim": 1032,
      "emez": 1033,
      "yüküml": 1034,
      "15": 1035,
      "sayısı": 1036,
      "delil": 1037,
      "2011": 1038,
      "26": 1039,
      "hatalı": 1040,
      "ölçü": 1041,
      "gereğince": 1042,
      "kten": 1043,
      "süreli": 1044,
      "edile": 1045,
      "maddesinin": 1046,
      "daha": 1047,
      "24": 1048,
      "sta": 1049,
      "üzere": 1050,
      "lanama": 1051,
      "ılan": 1052,
      "konu": 1053,
      "kat": 1054,
      "ES": 1055,
      "isi": 1056,
      "ortadan": 1057,
      "yetersiz": 1058,
      "ücretinin": 1059,
      "ödenmesi": 1060,
      "işi": 1061,
      "pr": 1062,
      "feshi": 1063,
      "güven": 1064,
      "kabil": 1065,
      "kabilinden": 1066,
      "tutar": 1067,
      "alınması": 1068,
      "faz": 1069,
      "işin": 1070,
      "öngörülen": 1071,
      "aldığını": 1072,
      "görme": 1073,
      "malar": 1074,
      "haf": 1075,
      "haksız": 1076,
      "raporu": 1077,
      "Kararı": 1078,
      "aralık": 1079,
      "tarihli": 1080,
      "dolay": 1081,
      "çalıştığını": 1082,
      "edilme": 1083,
      "Söz": 1084,
      "isten": 1085,
      "reddini": 1086,
      "Yukarıda": 1087,
      "sürdür": 1088,
      "bin": 1089,
      "met": 1090,
      "miş": 1091,
      "vekaletin": 1092,
      "bağ": 1093,
      "kararına": 1094,
      "istemiştir": 1095,
      "değişik": 1096,
      "fazla": 1097,
      "beklenemeyeceği": 1098,
      "ait": 1099,
      "mik": 1100,
      "sebeplerle": 1101,
      "sun": 1102,
      "ydi": 1103,
      "lığının": 1104,
      "müşt": 1105,
      "haklarının": 1106,
      "hte": 1107,
      "başvurusunda": 1108,
      "gerektir": 1109,
      "feshe": 1110,
      "neydi": 1111,
      "hasta": 1112,
      "işyerinin": 1113,
      "dayanılarak": 1114,
      "hükmün": 1115,
      "nitelikte": 1116,
      "edilen": 1117,
      "nor": 1118,
      "bozma": 1119,
      "husu": 1120,
      "si": 1121,
      "dığında": 1122,
      "Yasasının": 1123,
      "önemli": 1124,
      "ted": 1125,
      "etim": 1126,
      "larında": 1127,
      "av": 1128,
      "tedir": 1129,
      "davranışı": 1130,
      "tüm": 1131,
      "raporları": 1132,
      "aya": 1133,
      "planla": 1134,
      "bildiriminde": 1135,
      "izmet": 1136,
      "ğu": 1137,
      "dil": 1138,
      "ederek": 1139,
      "değil": 1140,
      "mediğini": 1141,
      "din": 1142,
      "olmadığını": 1143,
      "tarihinden": 1144,
      "miktar": 1145,
      "raporların": 1146,
      "İstinaf": 1147,
      "nelerdir": 1148,
      "sına": 1149,
      "sürek": 1150,
      "ko": 1151,
      "ğinin": 1152,
      "ilmesi": 1153,
      "belirterek": 1154,
      "bulunma": 1155,
      "kesinleş": 1156,
      "sebebiyle": 1157,
      "masını": 1158,
      "dayandırıl": 1159,
      "Yukar": 1160,
      "buna": 1161,
      "hale": 1162,
      "likle": 1163,
      "??": 1164,
      "larını": 1165,
      "aralıklı": 1166,
      "personel": 1167,
      "feshedile": 1168,
      "35": 1169,
      "Say": 1170,
      "savunarak": 1171,
      "uygulan": 1172,
      "uz": 1173,
      "lerine": 1174,
      "gerekli": 1175,
      "hekim": 1176,
      "harcın": 1177,
      "hizmet": 1178,
      "mah": 1179,
      "ilmesine": 1180,
      "tutarında": 1181,
      "günü": 1182,
      "isinde": 1183,
      "bulunmadığı": 1184,
      "Yukarda": 1185,
      "ulu": 1186,
      "başvurusu": 1187,
      "tespit": 1188,
      "sebeplere": 1189,
      "performans": 1190,
      "oper": 1191,
      "alar": 1192,
      "lardan": 1193,
      "sürdürül": 1194,
      "gerekçelere": 1195,
      "ez": 1196,
      "içerisinde": 1197,
      "normal": 1198,
      "ben": 1199,
      "lerinden": 1200,
      "kanıt": 1201,
      "Sayılı": 1202,
      "ça": 1203,
      "Kanunun": 1204,
      "belge": 1205,
      "An": 1206,
      "Çalış": 1207,
      "alındığında": 1208,
      "ESİNE": 1209,
      "GE": 1210,
      "İĞ": 1211,
      "gön": 1212,
      "etkileri": 1213,
      "derhal": 1214,
      "dayandırılmaktadır": 1215,
      "İĞİNE": 1216,
      "belirlenen": 1217,
      "olg": 1218,
      "takdir": 1219,
      "edim": 1220,
      "dönem": 1221,
      "iyle": 1222,
      "işçilerin": 1223,
      "gönder": 1224,
      "etkileyen": 1225,
      "dına": 1226,
      "21": 1227,
      "tarihi": 1228,
      "haz": 1229,
      "gerçekleş": 1230,
      "kazan": 1231,
      "gerekir": 1232,
      "yapmış": 1233,
      "feshedilmiştir": 1234,
      "kıdemi": 1235,
      "gı": 1236,
      "ılar": 1237,
      "başka": 1238,
      "kullandığı": 1239,
      "duğunu": 1240,
      "klı": 1241,
      "Yar": 1242,
      "herhangi": 1243,
      "lerini": 1244,
      "yanında": 1245,
      "memesi": 1246,
      "durumlarda": 1247,
      "27": 1248,
      "dık": 1249,
      "lığ": 1250,
      "30": 1251,
      "doğr": 1252,
      "mahsu": 1253,
      "500": 1254,
      "sürekli": 1255,
      "Ancak": 1256,
      "böl": 1257,
      "dolayı": 1258,
      "daş": 1259,
      "olmak": 1260,
      "çalıştır": 1261,
      "28": 1262,
      "göz": 1263,
      "dayandığını": 1264,
      "bit": 1265,
      "saat": 1266,
      "ettiğini": 1267,
      "olsa": 1268,
      "yacak": 1269,
      "ünden": 1270,
      "ayda": 1271,
      "dair": 1272,
      "açması": 1273,
      "manın": 1274,
      "memur": 1275,
      "Bel": 1276,
      "zam": 1277,
      "Belir": 1278,
      "alarak": 1279,
      "müvekkil": 1280,
      "düşür": 1281,
      "bun": 1282,
      "maması": 1283,
      "esinden": 1284,
      "devamsızlığının": 1285,
      "düşük": 1286,
      "işlem": 1287,
      "somut": 1288,
      "asyon": 1289,
      "iki": 1290,
      "mahsubu": 1291,
      "ıp": 1292,
      "kez": 1293,
      "önc": 1294,
      "akışını": 1295,
      "arkadaş": 1296,
      "lif": 1297,
      "far": 1298,
      "tarihine": 1299,
      "zaman": 1300,
      "tilen": 1301,
      "laş": 1302,
      "Belirtilen": 1303,
      "usunda": 1304,
      "husus": 1305,
      "sürdürülmesinin": 1306,
      "açacağı": 1307,
      "oluştur": 1308,
      "mazer": 1309,
      "bakiye": 1310,
      "ediminden": 1311,
      "yıllık": 1312,
      "başlatılma": 1313,
      "abilir": 1314,
      "kaldırılması": 1315,
      "ildiği": 1316,
      "üdür": 1317,
      "isine": 1318,
      "ilerek": 1319,
      "isti": 1320,
      "öne": 1321,
      "ölçüler": 1322,
      "2008": 1323,
      "alındığı": 1324,
      "ayrıca": 1325,
      "vekil": 1326,
      "çalışmaya": 1327,
      "ası": 1328,
      "meye": 1329,
      "uyuşmazlıkta": 1330,
      "yatır": 1331,
      "br": 1332,
      "eden": 1333,
      "kabin": 1334,
      "gerektiğini": 1335,
      "olmamakla": 1336,
      "ilgil": 1337,
      "bileceği": 1338,
      "edilmiştir": 1339,
      "üzerine": 1340,
      "şirketin": 1341,
      "tay": 1342,
      "bulunmuştur": 1343,
      "edilmesi": 1344,
      "kaydına": 1345,
      "dilek": 1346,
      "ast": 1347,
      "edilmelidir": 1348,
      "bozulmak": 1349,
      "gücü": 1350,
      "ılacak": 1351,
      "düşürücü": 1352,
      "olabilir": 1353,
      "Çalışanın": 1354,
      "dinlen": 1355,
      "farklı": 1356,
      "inci": 1357,
      "diğinden": 1358,
      "denin": 1359,
      "hastalanan": 1360,
      "sızın": 1361,
      "gıtay": 1362,
      "Yargıtay": 1363,
      "Mahkemesinin": 1364,
      "eri": 1365,
      "geçen": 1366,
      "pro": 1367,
      "undan": 1368,
      "olayda": 1369,
      "are": 1370,
      "fıkrası": 1371,
      "13": 1372,
      "bah": 1373,
      "ineye": 1374,
      "yapma": 1375,
      "ade": 1376,
      "ağır": 1377,
      "kapsamında": 1378,
      "sabit": 1379,
      "gerektiği": 1380,
      "23": 1381,
      "ildiğini": 1382,
      "dış": 1383,
      "özel": 1384,
      "bilgi": 1385,
      "bildirimi": 1386,
      "fayda": 1387,
      "harcından": 1388,
      "2017": 1389,
      "olgu": 1390,
      "ihtar": 1391,
      "ünün": 1392,
      "ılık": 1393,
      "linde": 1394,
      "bulunduğu": 1395,
      "brüt": 1396,
      "diğinin": 1397,
      "binin": 1398,
      "rar": 1399,
      "hakkında": 1400,
      "bölüm": 1401,
      "kurul": 1402,
      "yetersizliği": 1403,
      "yacaktır": 1404,
      "22": 1405,
      "ılması": 1406,
      "rahatsızlığı": 1407,
      "astan": 1408,
      "yükümlül": 1409,
      "eylem": 1410,
      "asının": 1411,
      "savunması": 1412,
      "biri": 1413,
      "Mad": 1414,
      "vermek": 1415,
      "miktarının": 1416,
      "mazeret": 1417,
      "verilen": 1418,
      "Tar": 1419,
      "yönde": 1420,
      "kesinleşmesine": 1421,
      "sip": 1422,
      "durumunda": 1423,
      "istek": 1424,
      "araş": 1425,
      "çekilme": 1426,
      "araştır": 1427,
      "çekilmez": 1428,
      "yak": 1429,
      "feshedilebileceği": 1430,
      "edeceği": 1431,
      "2010": 1432,
      "dilekç": 1433,
      "vak": 1434,
      "günlük": 1435,
      "tedav": 1436,
      "başladığını": 1437,
      "almış": 1438,
      "alınma": 1439,
      "hafta": 1440,
      "âlet": 1441,
      "vekâlet": 1442,
      "düzenlenmiştir": 1443,
      "oybirliğiyle": 1444,
      "olabilirler": 1445,
      "yalı": 1446,
      "olmayan": 1447,
      "lanması": 1448,
      "tutan": 1449,
      "zorun": 1450,
      "üşünü": 1451,
      "yürüy": 1452,
      "yürüyüşünü": 1453,
      "landığı": 1454,
      "16": 1455,
      "gönderilmesine": 1456,
      "faydalanama": 1457,
      "gir": 1458,
      "çoğ": 1459,
      "tığının": 1460,
      "sendikaya": 1461,
      "-)": 1462,
      "edildiği": 1463,
      "maddesine": 1464,
      "usul": 1465,
      "Son": 1466,
      "mı": 1467,
      "etmesi": 1468,
      "konusunda": 1469,
      "vakı": 1470,
      "sözleşmesini": 1471,
      "birim": 1472,
      "örne": 1473,
      "iadesi": 1474,
      "tazminatı": 1475,
      "başlatma": 1476,
      "Taraf": 1477,
      "cı": 1478,
      "Mahkemesince": 1479,
      "itibariyle": 1480,
      "dah": 1481,
      "dayalı": 1482,
      "olun": 1483,
      "planlamasının": 1484,
      "lüğü": 1485,
      "fesihte": 1486,
      "çık": 1487,
      "altı": 1488,
      "esas": 1489,
      "akdi": 1490,
      "masında": 1491,
      "lak": 1492,
      "sorum": 1493,
      "ilişkisini": 1494,
      "diğinde": 1495,
      "memuru": 1496,
      "disip": 1497,
      "sürerek": 1498,
      "disipl": 1499,
      "hallerdir": 1500,
      "açıkla": 1501,
      "bağlı": 1502,
      "70": 1503,
      "çare": 1504,
      "kazanılacak": 1505,
      "kural": 1506,
      "hallerin": 1507,
      "operasyon": 1508,
      "yönünde": 1509,
      "htelif": 1510,
      "davranışının": 1511,
      "yönünden": 1512,
      "ER": 1513,
      "mev": 1514,
      "hazineye": 1515,
      "sendik": 1516,
      "itibaren": 1517,
      "sorun": 1518,
      "durumda": 1519,
      "hastalanarak": 1520,
      "Taraflar": 1521,
      "değerlendirme": 1522,
      "mektedir": 1523,
      "yapıldığı": 1524,
      "yaptığını": 1525,
      "ıldığı": 1526,
      "edilmesinden": 1527,
      "şeklinde": 1528,
      "şedeceği": 1529,
      "sayılmış": 1530,
      "bahşedeceği": 1531,
      "açtığının": 1532,
      "31": 1533,
      "mez": 1534,
      "sayılması": 1535,
      "üretim": 1536,
      "Sonuç": 1537,
      "hastan": 1538,
      "tat": 1539,
      "almadır": 1540,
      "zorunda": 1541,
      "bunlardan": 1542,
      "sil": 1543,
      "hem": 1544,
      "aksamasına": 1545,
      "arkadaşlarının": 1546,
      "bozmayı": 1547,
      "ilgilisine": 1548,
      "hiç": 1549,
      "yeterlilikten": 1550,
      "hastalanmanın": 1551,
      "olgudur": 1552,
      "faydalanamayacaktır": 1553,
      "başlatmama": 1554,
      "edilmesindendir": 1555,
      "vekilinin": 1556,
      "Fesh": 1557,
      "dinde": 1558,
      "etkilen": 1559,
      "değildir": 1560,
      "Sendi": 1561,
      "müvekkili": 1562,
      "mahkemece": 1563,
      "defa": 1564,
      "üyesi": 1565,
      "gerektirmiştir": 1566,
      "50": 1567,
      "sonuç": 1568,
      "kanun": 1569,
      "ıldığını": 1570,
      "muhtelif": 1571,
      "sözleşme": 1572,
      "ısında": 1573,
      "dayandığının": 1574,
      "sonucu": 1575,
      "maddeleri": 1576,
      "koş": 1577,
      "kana": 1578,
      "öyle": 1579,
      "İŞ": 1580,
      "etle": 1581,
      "geçersizliğinin": 1582,
      ").": 1583,
      "enel": 1584,
      "işverenden": 1585,
      "maddenin": 1586,
      "verildiği": 1587,
      "önel": 1588,
      "devamı": 1589,
      "öt": 1590,
      "hastalık": 1591,
      "rahatsızlık": 1592,
      "90": 1593,
      "gram": 1594,
      "sanın": 1595,
      "işine": 1596,
      "program": 1597,
      "tutanak": 1598,
      "ic": 1599,
      "anlaşıldığından": 1600,
      "İAD": 1601,
      "mesa": 1602,
      "İADESİNE": 1603,
      "üne": 1604,
      "olmadan": 1605,
      "istifa": 1606,
      "2018": 1607,
      "bekleme": 1608,
      "örneğinin": 1609,
      "Feshin": 1610,
      "sak": 1611,
      "başlatılmaması": 1612,
      "mayan": 1613,
      "kendisine": 1614,
      "ğini": 1615,
      "bor": 1616,
      "davranışları": 1617,
      "ap": 1618,
      "luğ": 1619,
      "verimi": 1620,
      "değişiklik": 1621,
      "esastan": 1622,
      "tanı": 1623,
      "yasa": 1624,
      "mahkemesinin": 1625,
      "mevc": 1626,
      "LİĞİNE": 1627,
      "Sİ": 1628,
      "ZLİĞİNE": 1629,
      "ÇER": 1630,
      "GEÇER": 1631,
      "SİZLİĞİNE": 1632,
      "GEÇERSİZLİĞİNE": 1633,
      "mahkemesince": 1634,
      "ken": 1635,
      "savunmuştur": 1636,
      "mevcut": 1637,
      "rol": 1638,
      "belirlenmesine": 1639,
      "14": 1640,
      "Huk": 1641,
      "sona": 1642,
      "cez": 1643,
      "tiraz": 1644,
      "mahkemenin": 1645,
      "ortaya": 1646,
      "koşul": 1647,
      "edildiğini": 1648,
      "yarar": 1649,
      "maddi": 1650,
      "İŞE": 1651,
      "maya": 1652,
      "Hak": 1653,
      "itiraz": 1654,
      "yetk": 1655,
      "mür": 1656,
      "boş": 1657,
      "müraca": 1658,
      "ad": 1659,
      "gereği": 1660,
      "yaklaş": 1661,
      "lü": 1662,
      "gerçekleştir": 1663,
      "hastalı": 1664,
      "fi": 1665,
      "kıs": 1666,
      "ter": 1667,
      "Mahkemesine": 1668,
      "etic": 1669,
      "yasanın": 1670,
      "maddede": 1671,
      "eşit": 1672,
      "acağ": 1673,
      "davalılar": 1674,
      "taş": 1675,
      "üğünü": 1676,
      "muş": 1677,
      "cev": 1678,
      "dışında": 1679,
      "aralı": 1680,
      "2005": 1681,
      "lanma": 1682,
      "işini": 1683,
      "tazminatının": 1684,
      "güvenc": 1685,
      "yaklaşık": 1686,
      "ika": 1687,
      "takdiren": 1688,
      "Kanununun": 1689,
      "bilirk": 1690,
      "personelin": 1691,
      "dok": 1692,
      "40": 1693,
      "işyerindeki": 1694,
      "180": 1695,
      "Hukuk": 1696,
      "sev": 1697,
      "özetle": 1698,
      "mi": 1699,
      "işlet": 1700,
      "müracaatı": 1701,
      "fıkrasına": 1702,
      "dece": 1703,
      "tarafın": 1704,
      "Esa": 1705,
      "liğinde": 1706,
      "kaldırılmasına": 1707,
      "sahte": 1708,
      "tahsilinin": 1709,
      "ucu": 1710,
      "köt": 1711,
      "amir": 1712,
      "dilekçesinde": 1713,
      "kapsamı": 1714,
      "yat": 1715,
      "sadece": 1716,
      "temsil": 1717,
      "nın": 1718,
      "tarihlerinde": 1719,
      "larak": 1720,
      "kalan": 1721,
      "akdini": 1722,
      "başvurusuna": 1723,
      "doğru": 1724,
      "alışkan": 1725,
      "İşverenin": 1726,
      "işçisi": 1727,
      "iyet": 1728,
      "fesihten": 1729,
      "tık": 1730,
      "alara": 1731,
      "verildiğini": 1732,
      "Esas": 1733,
      "Baş": 1734,
      "ularak": 1735,
      "tarihlerde": 1736,
      "etmek": 1737,
      "ispatla": 1738,
      "başvurusunun": 1739,
      "olduğundan": 1740,
      "beklenemez": 1741,
      "num": 1742,
      "erdir": 1743,
      "bulunması": 1744,
      "61": 1745,
      "lanamadığı": 1746,
      "Fesih": 1747,
      "ılara": 1748,
      "şirkette": 1749,
      "alını": 1750,
      "doğur": 1751,
      "alınıp": 1752,
      "gelmediği": 1753,
      "iddiası": 1754,
      "avan": 1755,
      "dokt": 1756,
      "belirsiz": 1757,
      "masından": 1758,
      "oluş": 1759,
      "kast": 1760,
      "açıktır": 1761,
      "disiplin": 1762,
      "ba": 1763,
      "ılmadığı": 1764,
      "görevlendir": 1765,
      "soruml": 1766,
      "ğr": 1767,
      "edilmiş": 1768,
      "yılı": 1769,
      "LE": 1770,
      "yaş": 1771,
      "maksızın": 1772,
      "kanunun": 1773,
      "aran": 1774,
      "ayram": 1775,
      "düzenlenen": 1776,
      "numaralı": 1777,
      "ısıyla": 1778,
      "yükümlüdür": 1779,
      "çalışmakta": 1780,
      "geçir": 1781,
      "acağını": 1782,
      "lerden": 1783,
      "mının": 1784,
      "sik": 1785,
      "yöne": 1786,
      "işyerine": 1787,
      "kuruluş": 1788,
      "boşta": 1789,
      "verdiği": 1790,
      "aksat": 1791,
      "sabittir": 1792,
      "doktor": 1793,
      "üç": 1794,
      "müştür": 1795,
      "öğr": 1796,
      "ifade": 1797,
      "hekimine": 1798,
      "bakım": 1799,
      "ata": 1800,
      "ite": 1801,
      "ilmiştir": 1802,
      "uygul": 1803,
      "niteliğinde": 1804,
      "olduğunun": 1805,
      "kasten": 1806,
      "bulunul": 1807,
      "hakkının": 1808,
      "anlam": 1809,
      "şirkete": 1810,
      "birimlerinden": 1811,
      "yönelik": 1812,
      "anlaşılmakla": 1813,
      "ene": 1814,
      "tim": 1815,
      "Al": 1816,
      "gününde": 1817,
      "haft": 1818,
      "Dairemizin": 1819,
      "alındığını": 1820,
      "düşüklüğü": 1821,
      "verilmiş": 1822,
      "vakıa": 1823,
      "ört": 1824,
      "REK": 1825,
      "tedavi": 1826,
      "bilirkişi": 1827,
      "sayıs": 1828,
      "80": 1829,
      "etkilenmesine": 1830,
      "almasının": 1831,
      "talebinin": 1832,
      "sendikalı": 1833,
      "ilecek": 1834,
      "açtığı": 1835,
      "tazminata": 1836,
      "salt": 1837,
      "Sözleş": 1838,
      "teb": 1839,
      "bulunduğunu": 1840,
      "kaç": 1841,
      "Madde": 1842,
      "tarihten": 1843,
      "redde": 1844,
      "ilgiliye": 1845,
      "sıt": 1846,
      "ettir": 1847,
      "tarafça": 1848,
      "uluk": 1849,
      "çalışmalar": 1850,
      "belirtmiştir": 1851,
      "performansının": 1852,
      "bet": 1853,
      "kayıt": 1854,
      "öncesi": 1855,
      "yatırılan": 1856,
      "amaz": 1857,
      "genel": 1858,
      "EL": 1859,
      "İR": 1860,
      "ame": 1861,
      "kiş": 1862,
      "üst": 1863,
      "mahkeme": 1864,
      "ödenmek": 1865,
      "imkan": 1866,
      "bulunmamaktadır": 1867,
      "GEREK": 1868,
      "GEREKT": 1869,
      "işle": 1870,
      "gerektiğ": 1871,
      "mesinde": 1872,
      "leriyle": 1873,
      "ilmiş": 1874,
      "toplan": 1875,
      "mutlak": 1876,
      "görülmüştür": 1877,
      "vurusu": 1878,
      "toplanan": 1879,
      "düzenini": 1880,
      "Başvurusu": 1881,
      "bendi": 1882,
      "edilerek": 1883,
      "verimsiz": 1884,
      "sonlan": 1885,
      "ceğini": 1886,
      "akışının": 1887,
      "GEREKTİĞİNE": 1888,
      "tekrar": 1889,
      "tatil": 1890,
      "ilip": 1891,
      "alına": 1892,
      "ber": 1893,
      "açmış": 1894,
      "liğinden": 1895,
      "mazeretsiz": 1896,
      "ib": 1897,
      "ilik": 1898,
      "yok": 1899,
      "BEL": 1900,
      "MESİNE": 1901,
      "NMESİNE": 1902,
      "getirip": 1903,
      "LENMESİNE": 1904,
      "İRLENMESİNE": 1905,
      "BELİRLENMESİNE": 1906,
      "yine": 1907,
      "sürede": 1908,
      "açıkça": 1909,
      "dört": 1910,
      "varsa": 1911,
      "alacak": 1912,
      "emesi": 1913,
      "muay": 1914,
      "mesai": 1915,
      "iy": 1916,
      "yapmak": 1917,
      "tikten": 1918,
      "dosyasının": 1919,
      "menin": 1920,
      "gelmediğini": 1921,
      "tespiti": 1922,
      "borc": 1923,
      "ayr": 1924,
      "yapması": 1925,
      "dayanak": 1926,
      "trol": 1927,
      "etmiş": 1928,
      "ulaş": 1929,
      "deliller": 1930,
      "muayene": 1931,
      "isa": 1932,
      "savunmasını": 1933,
      "bozularak": 1934,
      "isabet": 1935,
      "alınmadığı": 1936,
      "dayandığından": 1937,
      "uma": 1938,
      "ina": 1939,
      "anı": 1940,
      "karşısında": 1941,
      "işçiye": 1942,
      "ız": 1943,
      "tif": 1944,
      "hukuka": 1945,
      "olunan": 1946,
      "Alın": 1947,
      "imz": 1948,
      "osy": 1949,
      "talebi": 1950,
      "dosyadaki": 1951,
      "hakkını": 1952,
      "süresinin": 1953,
      "gerçekleştirilen": 1954,
      "edildiğinden": 1955,
      "geçersizliği": 1956,
      "haftalık": 1957,
      "po": 1958,
      "res": 1959,
      "sebeb": 1960,
      "dıklarını": 1961,
      "sını": 1962,
      "haber": 1963,
      "taraflar": 1964,
      "belirtildiği": 1965,
      "alışkanlık": 1966,
      "boy": 1967,
      "sıra": 1968,
      "sel": 1969,
      "hiçbir": 1970,
      "zorunlu": 1971,
      "irad": 1972,
      "kontrol": 1973,
      "yacağı": 1974,
      "yapılmasına": 1975,
      "bozacağı": 1976,
      "gözet": 1977,
      "Top": 1978,
      "bayram": 1979,
      "asını": 1980,
      "tım": 1981,
      "yapıldığını": 1982,
      "davasının": 1983,
      "yürüt": 1984,
      "düşün": 1985,
      "kurallarına": 1986,
      "yeterli": 1987,
      "örü": 1988,
      "ektedir": 1989,
      "ulması": 1990,
      "key": 1991,
      "akt": 1992,
      "meyen": 1993,
      "onay": 1994,
      "açıklama": 1995,
      "320": 1996,
      "haline": 1997,
      "bölümünde": 1998,
      "Müdür": 1999,
      "Toplu": 2000,
      "meden": 2001,
      "yoluna": 2002,
      "hükmedilm": 2003,
      "sonucuna": 2004,
      "feshinde": 2005,
      "Yaz": 2006,
      "kısa": 2007,
      "uygula": 2008,
      "Yazılı": 2009,
      "mey": 2010,
      "getirdiğini": 2011,
      "Sendika": 2012,
      "fir": 2013,
      "isiz": 2014,
      "2007": 2015,
      "ilkesine": 2016,
      "persone": 2017,
      "uzun": 2018,
      "cevap": 2019,
      "Hük": 2020,
      "yükümlülüğü": 2021,
      "dahil": 2022,
      "sah": 2023,
      "üre": 2024,
      "incelen": 2025,
      "devamsızlıkta": 2026,
      "huz": 2027,
      "müdür": 2028,
      "çoğun": 2029,
      "huzur": 2030,
      "bildiriminin": 2031,
      "tazminatın": 2032,
      "dosyaya": 2033,
      "....": 2034,
      "güvencesi": 2035,
      "eksik": 2036,
      "2019": 2037,
      "görüş": 2038,
      "nez": 2039,
      "başladığı": 2040,
      "tebliğ": 2041,
      "pros": 2042,
      "dayanıp": 2043,
      "kullanması": 2044,
      "öncesinde": 2045,
      "luğu": 2046,
      "Alınması": 2047,
      "zarar": 2048,
      "lanarak": 2049,
      "takdirde": 2050,
      "fı": 2051,
      "ici": 2052,
      "çalışanın": 2053,
      "ibra": 2054,
      "düğünü": 2055,
      "getirdiği": 2056,
      "bakımından": 2057,
      "amacı": 2058,
      "vekille": 2059,
      "aktinin": 2060,
      "uygulanacak": 2061,
      "git": 2062,
      "açtığını": 2063,
      "istendiğini": 2064,
      "kanaat": 2065,
      "tekn": 2066,
      "cu": 2067,
      "pleri": 2068,
      "raporlarının": 2069,
      "durumu": 2070,
      "ılmayan": 2071,
      "mahkemesi": 2072,
      "luğa": 2073,
      "sınır": 2074,
      "zorunl": 2075,
      "prosed": 2076,
      "çalışması": 2077,
      "ilişkisi": 2078,
      "ser": 2079,
      "işlerin": 2080,
      "akdine": 2081,
      "olmasa": 2082,
      "Özel": 2083,
      "görevini": 2084,
      "olmaksızın": 2085,
      "boyun": 2086,
      "HM": 2087,
      "ilav": 2088,
      "eten": 2089,
      "özen": 2090,
      "açı": 2091,
      "dönemde": 2092,
      "dahi": 2093,
      "ilaveten": 2094,
      "raporun": 2095,
      "feshedildiğinin": 2096,
      "harç": 2097,
      "ikinci": 2098,
      "sonrasında": 2099,
      "etmemesi": 2100,
      "duk": 2101,
      "yanın": 2102,
      "dayanan": 2103,
      "ılmaz": 2104,
      "sonlandırıl": 2105,
      "iddialara": 2106,
      "bas": 2107,
      "teş": 2108,
      "geldiği": 2109,
      "öncelikle": 2110,
      "na": 2111,
      "gerçe": 2112,
      "işley": 2113,
      "madan": 2114,
      "ilmek": 2115,
      "ağrı": 2116,
      "kazası": 2117,
      "feshedilme": 2118,
      "yönetic": 2119,
      "hazır": 2120,
      "osyanın": 2121,
      "kanuni": 2122,
      "arasındaki": 2123,
      "nezdinde": 2124,
      "işleminin": 2125,
      "oj": 2126,
      "emeleri": 2127,
      "ecek": 2128,
      "dayanmaktadır": 2129,
      "tespitine": 2130,
      "operat": 2131,
      "yasaya": 2132,
      "HMK": 2133,
      "sebebiyet": 2134,
      "ibraz": 2135,
      "düğü": 2136,
      "uymayan": 2137,
      "kurum": 2138,
      "programlarında": 2139,
      "Mu": 2140,
      "uyarı": 2141,
      "konuda": 2142,
      "Hüküm": 2143,
      "BOZULMASINA": 2144,
      "bulunmadığını": 2145,
      "kuruluşlarından": 2146,
      "bendinde": 2147,
      "özellikle": 2148,
      "personeli": 2149,
      "sizin": 2150,
      "anlamda": 2151,
      "sizlik": 2152,
      "Maddeleri": 2153,
      "osyal": 2154,
      "viz": 2155,
      "44": 2156,
      "nok": 2157,
      "birçok": 2158,
      "sonunda": 2159,
      "savunmasında": 2160,
      "ameli": 2161,
      "Se": 2162,
      "bepleri": 2163,
      "yetki": 2164,
      "uluğu": 2165,
      "dinlenen": 2166,
      "gerektiğinin": 2167,
      "Sebepleri": 2168,
      "ilere": 2169,
      "sonucunu": 2170,
      "stos": 2171,
      "iddiasını": 2172,
      "yitir": 2173,
      "Kur": 2174,
      "bildirimini": 2175,
      "Dosyadaki": 2176,
      "şeklindeki": 2177,
      "tik": 2178,
      "vardi": 2179,
      "müşteri": 2180,
      "sırasında": 2181,
      "çeşit": 2182,
      "etme": 2183,
      "ceğinin": 2184,
      "sebebinin": 2185,
      "iadesini": 2186,
      "keyfi": 2187,
      "operatörü": 2188,
      "çeşitli": 2189,
      "maaş": 2190,
      "nedeninin": 2191,
      "katlanması": 2192,
      "dolayısıyla": 2193,
      "şika": 2194,
      "süreye": 2195,
      "önceden": 2196,
      "sayısının": 2197,
      "şikayet": 2198,
      "irat": 2199,
      "sunulan": 2200,
      "amacıyla": 2201,
      "kim": 2202,
      "uyul": 2203,
      "ısrar": 2204,
      "çalışanların": 2205,
      "nokta": 2206,
      "iken": 2207,
      "kısmının": 2208,
      "taşı": 2209,
      "hes": 2210,
      "anlatım": 2211,
      "bozduğu": 2212,
      "kullanılmayan": 2213,
      "Taraflarca": 2214,
      "ağrısı": 2215,
      "üs": 2216,
      "yeri": 2217,
      "kötüye": 2218,
      "fon": 2219,
      "öde": 2220,
      "müvekkilin": 2221,
      "Ge": 2222,
      "biç": 2223,
      "mc": 2224,
      "ilmediği": 2225,
      "değerlendiril": 2226,
      "altında": 2227,
      "kanıtlanma": 2228,
      "belgeler": 2229,
      "6100": 2230,
      "biçim": 2231,
      "rak": 2232,
      "ulama": 2233,
      "niyet": 2234,
      "ceki": 2235,
      "of": 2236,
      "işinin": 2237,
      "önceki": 2238,
      "inceleme": 2239,
      "aittir": 2240,
      "müşter": 2241,
      "kanaa": 2242,
      "Ağu": 2243,
      "sorunları": 2244,
      "Ağustos": 2245,
      "almak": 2246,
      "etkili": 2247,
      "sonucunda": 2248,
      "ON": 2249,
      "tabi": 2250,
      "tış": 2251,
      "lanmadığı": 2252,
      "olayın": 2253,
      "geçersizliğini": 2254,
      "itekim": 2255,
      "çoğu": 2256,
      "belirlenmesini": 2257,
      "lığa": 2258,
      "bildirimsiz": 2259,
      "boyunca": 2260,
      "sek": 2261,
      "tama": 2262,
      "işverenlik": 2263,
      "feshedilen": 2264,
      "malz": 2265,
      "beyanı": 2266,
      "gelen": 2267,
      "yorsa": 2268,
      "ban": 2269,
      "taleb": 2270,
      "hastaneye": 2271,
      "öğrendi": 2272,
      "ukat": 2273,
      "maka": 2274,
      "müm": 2275,
      "yapılmadığı": 2276,
      "davalılardan": 2277,
      "liğinin": 2278,
      "yönetim": 2279,
      "hükümleri": 2280,
      "Sendikal": 2281,
      "2009": 2282,
      "lilik": 2283,
      "İşçi": 2284,
      "muz": 2285,
      "kendisinden": 2286,
      "doğrul": 2287,
      "vizite": 2288,
      "feshede": 2289,
      "toplamda": 2290,
      "iyi": 2291,
      "başına": 2292,
      "tina": 2293,
      "aldığının": 2294,
      "gid": 2295,
      "imtina": 2296,
      "tarafa": 2297,
      "aykır": 2298,
      "hastalığı": 2299,
      "Haz": 2300,
      "emediği": 2301,
      "bildirimli": 2302,
      "almadan": 2303,
      "çıkart": 2304,
      "şartlarına": 2305,
      "açıklandığı": 2306,
      "böyle": 2307,
      "süresine": 2308,
      "geçtikten": 2309,
      "başı": 2310,
      "SON": 2311,
      "UÇ": 2312,
      "Yas": 2313,
      "fesihlerde": 2314,
      "mışsa": 2315,
      "yatırdığı": 2316,
      "sözleşmelerinin": 2317,
      "SONUÇ": 2318,
      "Yasanın": 2319,
      ".”": 2320,
      "mağ": 2321,
      "hakları": 2322,
      "gerekçesinin": 2323,
      "feshedilmesine": 2324,
      "ihti": 2325,
      "iddiasının": 2326,
      "ağırlığ": 2327,
      "çesi": 2328,
      "eket": 2329,
      "aciz": 2330,
      "lim": 2331,
      "süresinde": 2332,
      "sözlü": 2333,
      "görülmektedir": 2334,
      "yarak": 2335,
      "erkez": 2336,
      "işyerlerinde": 2337,
      "süreyi": 2338,
      "olumsuzluğa": 2339,
      "tali": 2340,
      "rahatsızlanarak": 2341,
      "ortam": 2342,
      "ukatlık": 2343,
      "lüğ": 2344,
      "şof": 2345,
      "anda": 2346,
      "sosyal": 2347,
      "tiğinde": 2348,
      "yükünü": 2349,
      "çıkarıl": 2350,
      "görevleri": 2351,
      "etkilediği": 2352,
      "altına": 2353,
      "başlatılmama": 2354,
      "sevk": 2355,
      "barış": 2356,
      "malara": 2357,
      "saklı": 2358,
      "ob": 2359,
      "tih": 2360,
      "ğitim": 2361,
      "görevli": 2362,
      "yapmamakta": 2363,
      "yaşan": 2364,
      "kaçın": 2365,
      "Tic": 2366,
      "adığı": 2367,
      "verdiğini": 2368,
      "yansıt": 2369,
      "Ay": 2370,
      "Nitekim": 2371,
      "olduk": 2372,
      "lat": 2373,
      "Gerekçesi": 2374,
      "cezası": 2375,
      "isini": 2376,
      "bilg": 2377,
      "kesint": 2378,
      "hükümlerine": 2379,
      "bahs": 2380,
      "ulduğu": 2381,
      "karşılı": 2382,
      "nitelendir": 2383,
      "imkanı": 2384,
      "mamıştır": 2385,
      "belirtilerek": 2386,
      "uğ": 2387,
      "kararlarının": 2388,
      "bulunulmuştur": 2389,
      "ettirmesinin": 2390,
      "vardiya": 2391,
      "uğra": 2392,
      "izlik": 2393,
      "verilme": 2394,
      "rahatsızlandığı": 2395,
      "görülmüş": 2396,
      "kün": 2397,
      "ılg": 2398,
      "lefon": 2399,
      "200": 2400,
      "bulunu": 2401,
      "yanılg": 2402,
      "maları": 2403,
      "hekimi": 2404,
      "mümkün": 2405,
      "bulunup": 2406,
      "ettiğ": 2407,
      "çıkarma": 2408,
      "işleyişini": 2409,
      "he": 2410,
      "jek": 2411,
      "ale": 2412,
      "maktay": 2413,
      "gerekçeyle": 2414,
      "jektif": 2415,
      "Lt": 2416,
      "Şti": 2417,
      "ahlak": 2418,
      "benz": 2419,
      "zorundadır": 2420,
      "tanığı": 2421,
      "Ltd": 2422,
      "feshedilemez": 2423,
      "bozulmasına": 2424,
      "kr": 2425,
      "zis": 2426,
      "ihl": 2427,
      "pozis": 2428,
      "sebebini": 2429,
      "hükmedilmesini": 2430,
      "sahip": 2431,
      "pozisyon": 2432,
      "söyle": 2433,
      "ümü": 2434,
      "yerleş": 2435,
      "toplu": 2436,
      "önelini": 2437,
      "Diğ": 2438,
      "tam": 2439,
      "oluştu": 2440,
      "uygulaması": 2441,
      "Diğer": 2442,
      "öy": 2443,
      "düşünül": 2444,
      "teknik": 2445,
      "sürenin": 2446,
      "müda": 2447,
      "hükmedilmesi": 2448,
      "saklıdır": 2449,
      "netic": 2450,
      "ındaki": 2451,
      "kararını": 2452,
      "raporunun": 2453,
      "maddesindeki": 2454,
      "varıl": 2455,
      "yıp": 2456,
      "avansının": 2457,
      "mali": 2458,
      "ispatlanamadığı": 2459,
      "takip": 2460,
      "353": 2461,
      "aykırılık": 2462,
      "adliye": 2463,
      "unsur": 2464,
      "Dosyanın": 2465,
      "ambar": 2466,
      "gerekçeleriyle": 2467,
      "kesinleştiğinde": 2468,
      "acağına": 2469,
      "önüne": 2470,
      "faal": 2471,
      "iadeye": 2472,
      "Maddes": 2473,
      "noktasında": 2474,
      "aksi": 2475,
      "lama": 2476,
      "almayı": 2477,
      "gan": 2478,
      "olmasına": 2479,
      "organ": 2480,
      "denk": 2481,
      "yaptır": 2482,
      "haller": 2483,
      "beyanları": 2484,
      "açıdan": 2485,
      "falar": 2486,
      "işte": 2487,
      "yere": 2488,
      "gösterdiği": 2489,
      "şartlarının": 2490,
      "söy": 2491,
      "ayı": 2492,
      "savunmalar": 2493,
      "davada": 2494,
      "tutum": 2495,
      "ameliyat": 2496,
      "gösterilerek": 2497,
      "adet": 2498,
      "operasyonunun": 2499,
      "maktaysa": 2500,
      "adı": 2501,
      "ettik": 2502,
      "feshinden": 2503,
      "rıca": 2504,
      "hususunda": 2505,
      "ağırlığında": 2506,
      "Ayrıca": 2507,
      "neticesinde": 2508,
      "980": 2509,
      "sendikanın": 2510,
      "gerçeği": 2511,
      "larla": 2512,
      "edilip": 2513,
      "duy": 2514,
      "yordu": 2515,
      "feshedilmiş": 2516,
      "oluşturduğu": 2517,
      "tahsil": 2518,
      "İşverence": 2519,
      "yerleşik": 2520,
      "36": 2521,
      "taciz": 2522,
      "bozucu": 2523,
      "elem": 2524,
      "devamsızlığı": 2525,
      "kişiler": 2526,
      "delillerle": 2527,
      "müdahale": 2528,
      "fak": 2529,
      "kor": 2530,
      "ihda": 2531,
      "mediğinin": 2532,
      "istihda": 2533,
      "değerlendirildiğinde": 2534,
      "re": 2535,
      "başvurması": 2536,
      "kurulu": 2537,
      "San": 2538,
      "mit": 2539,
      "sistem": 2540,
      "engel": 2541,
      "işverenliğ": 2542,
      "kalsa": 2543,
      "vekâletin": 2544,
      "sorumluluk": 2545,
      "yoktur": 2546,
      "Geçer": 2547,
      "Bir": 2548,
      "iği": 2549,
      "sızlık": 2550,
      "içeriği": 2551,
      "abilmesi": 2552,
      "sendikadan": 2553,
      "bağlan": 2554,
      "dıktan": 2555,
      "dinlenilme": 2556,
      "hemen": 2557,
      "Geçerli": 2558,
      "izni": 2559,
      "abilecek": 2560,
      "beklenemeye": 2561,
      "yöndeki": 2562,
      "Kal": 2563,
      "sözleşmesine": 2564,
      "ispatı": 2565,
      "hukuk": 2566,
      "konusudur": 2567,
      "kendisini": 2568,
      "araştırma": 2569,
      "maddedeki": 2570,
      "oldukları": 2571,
      "ihlal": 2572,
      "fesihler": 2573,
      "dayanmıştır": 2574,
      "duruma": 2575,
      "ücretsiz": 2576,
      "ilmelidir": 2577,
      "programlarının": 2578,
      "kesintisiz": 2579,
      "aksak": 2580,
      "aşmadığı": 2581,
      "tazminatına": 2582,
      "talima": 2583,
      "eğ": 2584,
      "şar": 2585,
      "”.": 2586,
      "hakemeleri": 2587,
      "kullandığını": 2588,
      "feshedilebilir": 2589,
      "toplantı": 2590,
      "Muhakemeleri": 2591,
      "yanılgılı": 2592,
      "büt": 2593,
      "oter": 2594,
      "tuz": 2595,
      "GK": 2596,
      "SGK": 2597,
      "hus": 2598,
      "yerel": 2599,
      "umet": 2600,
      "husumet": 2601,
      "ğin": 2602,
      "arı": 2603,
      "aksamalara": 2604,
      "avukatlık": 2605,
      "vekilleri": 2606,
      "Özellikle": 2607,
      "HD": 2608,
      "fab": 2609,
      "feshini": 2610,
      "telefon": 2611,
      "yazı": 2612,
      "mekte": 2613,
      "kullanmak": 2614,
      "başlatmaması": 2615,
      "244": 2616,
      "şoför": 2617,
      "fabr": 2618,
      "dr": 2619,
      "teh": 2620,
      "duğunun": 2621,
      "bildirilmiştir": 2622,
      "üyelik": 2623,
      "istendiği": 2624,
      "kanıtlanmamaktaysa": 2625,
      "emiştir": 2626,
      "raporuna": 2627,
      "konulan": 2628,
      "bozacak": 2629,
      "içerik": 2630,
      "gelmemesi": 2631,
      "kötü": 2632,
      "firma": 2633,
      "naz": 2634,
      "getirerek": 2635,
      "ölçüde": 2636,
      "356": 2637,
      "müvekkiline": 2638,
      "2006": 2639,
      "çalışmasının": 2640,
      "hükümlerinden": 2641,
      "izinsiz": 2642,
      "hizmetinden": 2643,
      "bölümde": 2644,
      "Temmuz": 2645,
      "teklif": 2646,
      "esasına": 2647,
      "sorumlu": 2648,
      "yönündeki": 2649,
      "acağının": 2650,
      "güt": 2651,
      "eder": 2652,
      "başvuru": 2653,
      "örgüt": 2654,
      "kaza": 2655,
      "Kıs": 2656,
      "Tür": 2657,
      "hâ": 2658,
      "şe": 2659,
      "sebebin": 2660,
      "amanın": 2661,
      "dayanma": 2662,
      "yıllarında": 2663,
      "Sözleşmesi": 2664,
      "çalışmalarından": 2665,
      "Sendikasına": 2666,
      "fıtığı": 2667,
      "görevlisi": 2668,
      "fabrika": 2669,
      "Kısaca": 2670,
      "ada": 2671,
      "ibi": 2672,
      "olur": 2673,
      "alınmadığını": 2674,
      "yapılması": 2675,
      "uyla": 2676,
      "bozulacağı": 2677,
      "icra": 2678,
      "raki": 2679,
      "defalar": 2680,
      "olmayıp": 2681,
      "kapsama": 2682,
      "önele": 2683,
      "girmez": 2684,
      "sonuçlarına": 2685,
      "öneline": 2686,
      "avans": 2687,
      "feshedemez": 2688,
      "gününün": 2689,
      "memiştir": 2690,
      "karşın": 2691,
      "\"...": 2692,
      "nedenleri": 2693,
      "hatır": 2694,
      "leştir": 2695,
      "belli": 2696,
      "sonrası": 2697,
      "yürütüm": 2698,
      "kes": 2699,
      "iniyet": 2700,
      "günlerinde": 2701,
      "iddialar": 2702,
      "sayılan": 2703,
      "belgelerden": 2704,
      "iyiniyet": 2705,
      "6356": 2706,
      "725": 2707,
      "otuz": 2708,
      "ayında": 2709,
      "ispatlaya": 2710,
      "müdürü": 2711,
      "istihdam": 2712,
      "Kaldı": 2713,
      "Merkez": 2714,
      "ardı": 2715,
      "oloj": 2716,
      "emek": 2717,
      "gelir": 2718,
      "yararlanan": 2719,
      "borcunu": 2720,
      "kâ": 2721,
      "şey": 2722,
      "kav": 2723,
      "ifa": 2724,
      "dosyada": 2725,
      "teslim": 2726,
      "delillere": 2727,
      "Süre": 2728,
      "emsal": 2729,
      "diğine": 2730,
      "değiştir": 2731,
      "mız": 2732,
      "erdirildiğini": 2733,
      "işverenliğin": 2734,
      "Buna": 2735,
      "part": 2736,
      "ğa": 2737,
      "alınmış": 2738,
      "edilmek": 2739,
      "hareket": 2740,
      "lemiş": 2741,
      "usulüne": 2742,
      "objektif": 2743,
      "vermiştir": 2744,
      "abile": 2745,
      "güvenlik": 2746,
      "dönemlerde": 2747,
      "oluşturacak": 2748,
      "üyük": 2749,
      "edilmediği": 2750,
      "yetkili": 2751,
      "amiri": 2752,
      "faaliyet": 2753,
      "san": 2754,
      "feshine": 2755,
      "meyi": 2756,
      "gelmem": 2757,
      "nitelik": 2758,
      "sunul": 2759,
      "imzal": 2760,
      "Müdürlüğü": 2761,
      "viziteye": 2762,
      "bün": 2763,
      "kusu": 2764,
      "ilim": 2765,
      "amadığı": 2766,
      "manız": 2767,
      "yatın": 2768,
      "önünde": 2769,
      "bulundur": 2770,
      "kapsamını": 2771,
      "araştırmakla": 2772,
      "vakıalara": 2773,
      "Hakim": 2774,
      "nitelendirmeyi": 2775,
      "tesi": 2776,
      "isinin": 2777,
      "...’": 2778,
      "anlaşıldığı": 2779,
      "görülmesini": 2780,
      "Her": 2781,
      "eron": 2782,
      "olmasının": 2783,
      "davranışına": 2784,
      "beyanlarından": 2785,
      "ediyor": 2786,
      "alınmadan": 2787,
      "taşeron": 2788,
      "ihale": 2789,
      "taraftan": 2790,
      "...'": 2791,
      "doğrudan": 2792,
      "partman": 2793,
      "Genel": 2794,
      "gele": 2795,
      "ceğinden": 2796,
      "Daval": 2797,
      "yazılara": 2798,
      "şartına": 2799,
      "gerektirici": 2800,
      "Yine": 2801,
      "günlerin": 2802,
      "kaldıklarını": 2803,
      "yeterlilik": 2804,
      "beyanda": 2805,
      "Hastan": 2806,
      "yacağını": 2807,
      "feshettiğini": 2808,
      "içtih": 2809,
      "sürec": 2810,
      "verilirken": 2811,
      "199": 2812,
      "maddelerinde": 2813,
      "borcuna": 2814,
      "büyük": 2815,
      "cra": 2816,
      "ot": 2817,
      "İcra": 2818,
      "şa": 2819,
      "işgünü": 2820,
      "dit": 2821,
      "olmaya": 2822,
      "almaya": 2823,
      "kendisinin": 2824,
      "ağırlık": 2825,
      "uncu": 2826,
      "feshettiği": 2827,
      "anlaşılmıştır": 2828,
      "tutarı": 2829,
      "tespitini": 2830,
      "prosedüre": 2831,
      "işbaşı": 2832,
      "sıf": 2833,
      "karşılık": 2834,
      "hakkına": 2835,
      "davası": 2836,
      "hakkındaki": 2837,
      "resen": 2838,
      "bütün": 2839,
      "büny": 2840,
      "kusur": 2841,
      "biz": 2842,
      "öngörülmüş": 2843,
      "fıkrasında": 2844,
      "geçirdiği": 2845,
      "malzeme": 2846,
      "günlerde": 2847,
      "işçilik": 2848,
      "sonraki": 2849,
      "sebepten": 2850,
      "temel": 2851,
      "Dairesi": 2852,
      "yükümlülüğünü": 2853,
      "öğren": 2854,
      "zar": 2855,
      "ana": 2856,
      "alıp": 2857,
      "sözleşmenin": 2858,
      "imkâ": 2859,
      "likleri": 2860,
      "sürelerin": 2861,
      "yazısında": 2862,
      "olanları": 2863,
      "ırken": 2864,
      "tazminatları": 2865,
      "ayrımc": 2866,
      "özellikleri": 2867,
      "reddet": 2868,
      "unsuru": 2869,
      "yada": 2870,
      "yapmakla": 2871,
      "işçileri": 2872,
      "geçmesi": 2873,
      "doğmuş": 2874,
      "edip": 2875,
      "olacağını": 2876,
      "sözleşmeye": 2877,
      "devamını": 2878,
      "davalar": 2879,
      "itirazlarının": 2880,
      "zorunludur": 2881,
      "teşh": 2882,
      "benzer": 2883,
      "60": 2884,
      "malı": 2885,
      "yapılmadığını": 2886,
      "hükmü": 2887,
      "ilkesi": 2888,
      "yetkisi": 2889,
      "kanaatine": 2890,
      "öğrendikten": 2891,
      "yaşandığı": 2892,
      "Dolay": 2893,
      "yoğ": 2894,
      "deki": 2895,
      "yapan": 2896,
      "amayacağı": 2897,
      "bulunmaksızın": 2898,
      "mütes": 2899,
      "belirlenmesi": 2900,
      "mağaz": 2901,
      "Dolayısıyla": 2902,
      "yoğun": 2903,
      "mütesel": 2904,
      "45": 2905,
      "bunu": 2906,
      "net": 2907,
      "nedenlere": 2908,
      "memiş": 2909,
      "ilamı": 2910,
      "hastalığının": 2911,
      "Ko": 2912,
      "fiz": 2913,
      "ülen": 2914,
      "davet": 2915,
      "dayanmadığını": 2916,
      "sebepleri": 2917,
      "müte": 2918,
      "değişmesine": 2919,
      "prob": 2920,
      "hatırlat": 2921,
      "kındaki": 2922,
      "tusunda": 2923,
      "onan": 2924,
      "sayıda": 2925,
      "ilerinin": 2926,
      "usule": 2927,
      "değişe": 2928,
      "düzeninin": 2929,
      "Hakkındaki": 2930,
      "doğuracağı": 2931,
      "doğrultusunda": 2932,
      "38": 2933,
      "mar": 2934,
      "üp": 2935,
      "artık": 2936,
      "tarihte": 2937,
      "çalışanlar": 2938,
      "ilgililere": 2939,
      "maddeleridir": 2940,
      "sayısına": 2941,
      "prosedür": 2942,
      "37": 2943,
      "vere": 2944,
      "taj": 2945,
      "hav": 2946,
      "davacıyı": 2947,
      "içeriğinden": 2948,
      "yetersizliğinden": 2949,
      "örgütlen": 2950,
      "361": 2951,
      "nisp": 2952,
      "etmediği": 2953,
      "çalışırken": 2954,
      "asına": 2955,
      "verilemez": 2956,
      "kanıtla": 2957,
      "eylemi": 2958,
      "alınmamasının": 2959,
      "değişikliklerine": 2960,
      "Haklı": 2961,
      "söylen": 2962,
      "aksaklık": 2963,
      "talimat": 2964,
      "Türk": 2965,
      "nispi": 2966,
      "ri": 2967,
      "tarafların": 2968,
      "ilke": 2969,
      "rahatsızlıkları": 2970,
      "FES": 2971,
      "HİN": 2972,
      "uçucu": 2973,
      "gösterilen": 2974,
      "sebebine": 2975,
      "FESHİN": 2976,
      "lek": 2977,
      "şu": 2978,
      "madığından": 2979,
      "lerle": 2980,
      "isim": 2981,
      "hallerinde": 2982,
      "gideri": 2983,
      "getirmesi": 2984,
      "dikten": 2985,
      "giriş": 2986,
      "tatili": 2987,
      "sahteliği": 2988,
      "Maddesi": 2989,
      "verilecek": 2990,
      "kamu": 2991,
      "alınmaması": 2992,
      "davranışlarının": 2993,
      "istediğini": 2994,
      "düzel": 2995,
      "yetkil": 2996,
      "şartı": 2997,
      "bünyesinde": 2998,
      "değişeceği": 2999,
      "önemi": 3000,
      "meyerek": 3001,
      "beri": 3002,
      "silen": 3003,
      "İn": 3004,
      "arz": 3005,
      "ereken": 3006,
      "feshedilip": 3007,
      "ontaj": 3008,
      "günler": 3009,
      "belirtilmiş": 3010,
      "görevine": 3011,
      "yükü": 3012,
      "müştereken": 3013,
      "lığından": 3014,
      "talebinde": 3015,
      "müteselsilen": 3016,
      "dön": 3017,
      "sada": 3018,
      "izasyon": 3019,
      "dana": 3020,
      "olumsuzlukların": 3021,
      "isteminin": 3022,
      "hükümle": 3023,
      "meydana": 3024,
      "serv": 3025,
      "harçlar": 3026,
      "larınca": 3027,
      "birden": 3028,
      "belirttiği": 3029,
      "durumunun": 3030,
      "zorunluluğu": 3031,
      "fakat": 3032,
      "hine": 3033,
      "raf": 3034,
      "izi": 3035,
      "kararında": 3036,
      "dayanmaksızın": 3037,
      "sonu": 3038,
      "sebebidir": 3039,
      "sonucunun": 3040,
      "bendin": 3041,
      "redded": 3042,
      "resmi": 3043,
      "kişilerin": 3044,
      "üyelikten": 3045,
      "Yok": 3046,
      "departman": 3047,
      "olağ": 3048,
      "olamaz": 3049,
      "ürlü": 3050,
      "fesihlerinde": 3051,
      "leştiği": 3052,
      "belirlemiş": 3053,
      "etkisiz": 3054,
      "etkisini": 3055,
      "yenilik": 3056,
      "nedenlerden": 3057,
      "sağla": 3058,
      "geçmediğinin": 3059,
      "doğmasından": 3060,
      "29361": 3061,
      "tutulması": 3062,
      "ahh": 3063,
      "uygulanacağına": 3064,
      "işlemesi": 3065,
      "doğurucu": 3066,
      "sorumluluğu": 3067,
      "aranmalıdır": 3068,
      "ılmazdır": 3069,
      "yitirdiği": 3070,
      "yitirmemiş": 3071,
      "biçimde": 3072,
      "etkiliyorsa": 3073,
      "kaçınılmazdır": 3074,
      "düşünülemez": 3075,
      "elemanı": 3076,
      "24429": 3077,
      "yürütümünü": 3078,
      "Yoksa": 3079,
      "olağan": 3080,
      "etkisizleştiği": 3081,
      "İç": 3082,
      "sım": 3083,
      "açılan": 3084,
      "kaldır": 3085,
      "ılamaz": 3086,
      "beklenen": 3087,
      "bulunmaması": 3088,
      "ihtarn": 3089,
      "hastanede": 3090,
      "fında": 3091,
      "aksay": 3092,
      "250": 3093,
      "belgelere": 3094,
      "kanaati": 3095,
      "karşılıklı": 3096,
      "nazara": 3097,
      "aksayacağı": 3098,
      "bağı": 3099,
      "bilmesi": 3100,
      "eli": 3101,
      "başlan": 3102,
      "yazıs": 3103,
      "feshedilmesi": 3104,
      "ramp": 3105,
      "kanıtlanamadığı": 3106,
      "dışı": 3107,
      "yöndedir": 3108,
      "kend": 3109,
      "ğında": 3110,
      "şir": 3111,
      "işgücü": 3112,
      "oran": 3113,
      "lanıp": 3114,
      "edilemediği": 3115,
      "itibarla": 3116,
      "görülmesi": 3117,
      "varlığı": 3118,
      "yetersizliğinin": 3119,
      "çalıştıran": 3120,
      "hemşir": 3121,
      "kaca": 3122,
      "meme": 3123,
      "ödev": 3124,
      "hata": 3125,
      "ılığı": 3126,
      "dildiği": 3127,
      "problem": 3128,
      "temizlik": 3129,
      "kapsamda": 3130,
      "değerlendirilmesi": 3131,
      "tedavisine": 3132,
      "koşulları": 3133,
      "Sözleşme": 3134,
      "isabetsizlik": 3135,
      "vermeye": 3136,
      "aşçı": 3137,
      "gününden": 3138,
      "nedenidir": 3139,
      "davranışlarda": 3140,
      "dosyası": 3141,
      "görevlerini": 3142,
      "yükümlülük": 3143,
      "sonuca": 3144,
      "verilmesinin": 3145,
      "meleri": 3146,
      "tırdığı": 3147,
      "...\"": 3148,
      "getirme": 3149,
      "yüklen": 3150,
      "yükleme": 3151,
      "yansıtmadığını": 3152,
      "başvurmasına": 3153,
      "iter": 3154,
      "getirmiştir": 3155,
      "verimsizliğinden": 3156,
      "kriter": 3157,
      "oluştuğu": 3158,
      "cil": 3159,
      "kü": 3160,
      "ayet": 3161,
      "çalışmak": 3162,
      "olmaması": 3163,
      "tarafına": 3164,
      "süreç": 3165,
      "liğine": 3166,
      "form": 3167,
      "siyon": 3168,
      "sicil": 3169,
      "sonlandırıldığını": 3170,
      "baskı": 3171,
      "Kurulu": 3172,
      "zede": 3173,
      "ari": 3174,
      "leyen": 3175,
      "geldiğini": 3176,
      "getirmediği": 3177,
      "çalışanı": 3178,
      "geçmiş": 3179,
      "feshedilmesinin": 3180,
      "istenen": 3181,
      "incelendiğinde": 3182,
      "gesinde": 3183,
      "pay": 3184,
      "sır": 3185,
      "hallerde": 3186,
      "bulunmaktadır": 3187,
      "şirketi": 3188,
      "bozulduğu": 3189,
      "katlan": 3190,
      "planlamasını": 3191,
      "dilekçesi": 3192,
      "çoğunluğ": 3193,
      "özeni": 3194,
      "ku": 3195,
      "kasıt": 3196,
      "yandan": 3197,
      "sayın": 3198,
      "yapılacak": 3199,
      "gerekçeli": 3200,
      "istina": 3201,
      "ilmeli": 3202,
      "sürdürülmesi": 3203,
      "tahsiline": 3204,
      "maruz": 3205,
      "istinaden": 3206,
      "montaj": 3207,
      "ğına": 3208,
      "almadığı": 3209,
      "lığını": 3210,
      "davacıyla": 3211,
      "belirtildiğini": 3212,
      "üzerinden": 3213,
      "görevinin": 3214,
      "yüklem": 3215,
      "hususunun": 3216,
      "hazırlanan": 3217,
      "kanaatim": 3218,
      "ayrımcılık": 3219,
      "hemşire": 3220,
      "matif": 3221,
      "yaptık": 3222,
      "olmadığından": 3223,
      "normatif": 3224,
      "istik": 3225,
      "isabetli": 3226,
      "işverenlikçe": 3227,
      "Ar": 3228,
      "seri": 3229,
      "raporunda": 3230,
      "önlem": 3231,
      "bildirildiği": 3232,
      "yazısı": 3233,
      "ödenmediğini": 3234,
      "başvurmuştur": 3235,
      "yükünün": 3236,
      "incelem": 3237,
      "edimini": 3238,
      "lığına": 3239,
      "gözetilerek": 3240,
      "huzurunu": 3241,
      "Merkezi": 3242,
      "32": 3243,
      "55": 3244,
      "800": 3245,
      "kılar": 3246,
      "uzm": 3247,
      "etki": 3248,
      "isn": 3249,
      "gördüğünü": 3250,
      "edilmesine": 3251,
      "nedenlerdir": 3252,
      "sonrasına": 3253,
      "görevi": 3254,
      "dıkları": 3255,
      "kanaatle": 3256,
      "sadakat": 3257,
      "ınız": 3258,
      "arası": 3259,
      "delillerin": 3260,
      "vermekten": 3261,
      "cezalar": 3262,
      "zarfında": 3263,
      "vaz": 3264,
      "edd": 3265,
      "aşama": 3266,
      "yapılarak": 3267,
      "isteğinin": 3268,
      "yüklet": 3269,
      "şartları": 3270,
      "işletmenin": 3271,
      "tamam": 3272,
      "aşamada": 3273,
      "zat": 3274,
      "depo": 3275,
      "gerekse": 3276,
      "ünkü": 3277,
      "alınmalıdır": 3278,
      "yapmadığı": 3279,
      "yardı": 3280,
      "işçiden": 3281,
      "ilmeden": 3282,
      "çıkarılan": 3283,
      "katıl": 3284,
      "alınamaması": 3285,
      "Sendikalar": 3286,
      "bağıt": 3287,
      "eklen": 3288,
      "düzeni": 3289,
      "meniz": 3290,
      "verimli": 3291,
      "etkileye": 3292,
      "ımız": 3293,
      "yararlan": 3294,
      "cevab": 3295,
      "Hazineye": 3296,
      "verilmelidir": 3297,
      "Eğitim": 3298,
      "vaş": 3299,
      "yavaş": 3300,
      "kadr": 3301,
      "kaldığı": 3302,
      "çıkarılma": 3303,
      "saatleri": 3304,
      "şube": 3305,
      "fet": 3306,
      "kil": 3307,
      "miye": 3308,
      "vmiye": 3309,
      "yersiz": 3310,
      "yevmiye": 3311,
      "gelmesi": 3312,
      "Harçlar": 3313,
      "komit": 3314,
      "bulunmadığından": 3315,
      "lığın": 3316,
      "aksattığı": 3317,
      "toplanmaktadır": 3318,
      "ilmeksizin": 3319,
      "tutumu": 3320,
      "AA": 3321,
      "Ey": 3322,
      "Ramaz": 3323,
      "lül": 3324,
      "ÜT": 3325,
      "halen": 3326,
      "durumunu": 3327,
      "başvurmak": 3328,
      "belirlenmiştir": 3329,
      "çalıştırılmadığı": 3330,
      "sorunlarında": 3331,
      "banka": 3332,
      "sürecine": 3333,
      "AAÜT": 3334,
      "Eylül": 3335,
      "Ramazan": 3336,
      ".’": 3337,
      "keş": 3338,
      "soy": 3339,
      "izn": 3340,
      "meslek": 3341,
      "dayanarak": 3342,
      "uyum": 3343,
      "yılından": 3344,
      "Yatırdığı": 3345,
      "varlığının": 3346,
      "hususun": 3347,
      "uyulmadığı": 3348,
      "soyut": 3349,
      "iniz": 3350,
      "olmuştur": 3351,
      "hayatın": 3352,
      "belirtilm": 3353,
      "yargı": 3354,
      "konuyla": 3355,
      "ödenen": 3356,
      "faat": 3357,
      "akışına": 3358,
      "kaldırılarak": 3359,
      "oluşturduğunun": 3360,
      "disiplinin": 3361,
      "kuruluşlarına": 3362,
      "hesab": 3363,
      "fizik": 3364,
      "eğitim": 3365,
      "etmesinin": 3366,
      "kanıtlar": 3367,
      "yararlanamadığı": 3368,
      "temsilc": 3369,
      "bili": 3370,
      "kül": 3371,
      "vermediği": 3372,
      "raporlara": 3373,
      "ödendiğini": 3374,
      "yıldan": 3375,
      "çoğunluk": 3376,
      "söylediğini": 3377,
      "riayet": 3378,
      "kişi": 3379,
      "lini": 3380,
      "nci": 3381,
      "ila": 3382,
      "emiş": 3383,
      "tav": 3384,
      "bildirildiğini": 3385,
      "kapsamından": 3386,
      "teredd": 3387,
      "tereddüt": 3388,
      "dilim": 3389,
      "oz": 3390,
      "ılabilmesi": 3391,
      "verenin": 3392,
      "yani": 3393,
      "anlat": 3394,
      "ödenerek": 3395,
      "işçiyi": 3396,
      "rahatsızlığının": 3397,
      "doğal": 3398,
      "isteme": 3399,
      "sürdürmesi": 3400,
      "bağl": 3401,
      "biçimsel": 3402,
      "tehlik": 3403,
      "olojik": 3404,
      "içtihat": 3405,
      "teşhisi": 3406,
      "dilimleme": 3407,
      "ğe": 3408,
      "anılan": 3409,
      "etmeye": 3410,
      "tartış": 3411,
      "yerde": 3412,
      "alınmıştır": 3413,
      "doğum": 3414,
      "makam": 3415,
      "organizasyon": 3416,
      "dinin": 3417,
      "destek": 3418,
      "kaldığını": 3419,
      "ilerine": 3420,
      "kaynaklandığı": 3421,
      "almadığını": 3422,
      "değişikliği": 3423,
      "saatte": 3424,
      "bakiyelerinin": 3425,
      "avanslarından": 3426,
      "departmanında": 3427,
      "paylaş": 3428,
      "ilmesini": 3429,
      "Yasası": 3430,
      "olgunun": 3431,
      "zorunluluk": 3432,
      "beklenemeyeceğinden": 3433,
      "Açık": 3434,
      "Hiz": 3435,
      "Met": 3436,
      "Noter": 3437,
      "parç": 3438,
      "çel": 3439,
      "işki": 3440,
      "işlerde": 3441,
      "vermesi": 3442,
      "ilendir": 3443,
      "davranışlar": 3444,
      "kapat": 3445,
      "kodu": 3446,
      "çalıştırıl": 3447,
      "eylemlerinin": 3448,
      "amirlerine": 3449,
      "gelecek": 3450,
      "Metal": 3451,
      "Kez": 3452,
      "sine": 3453,
      "ard": 3454,
      "yarat": 3455,
      "bulunduğ": 3456,
      "uyarılara": 3457,
      "anlamı": 3458,
      "eceği": 3459,
      "böylece": 3460,
      "ettikleri": 3461,
      "Keza": 3462,
      "As": 3463,
      "gereklerinden": 3464,
      "raporla": 3465,
      "nedenini": 3466,
      "dayanmak": 3467,
      "kullanmıştır": 3468,
      "memek": 3469,
      "İşverene": 3470,
      "fesheden": 3471,
      "sig": 3472,
      "mesaiye": 3473,
      "etmişse": 3474,
      "hesap": 3475,
      "uğrat": 3476,
      "şefi": 3477,
      "kuş": 3478,
      "insel": 3479,
      "artır": 3480,
      "dırı": 3481,
      "edilemeye": 3482,
      "nedenlerinin": 3483,
      "ımı": 3484,
      "kanıtlanmadığı": 3485,
      "memurların": 3486,
      "mazereti": 3487,
      "rahatsızlıklar": 3488,
      "seviye": 3489,
      "zedelen": 3490,
      "kuşku": 3491,
      "tılı": 3492,
      "olaya": 3493,
      "ulus": 3494,
      "edin": 3495,
      "idare": 3496,
      "tazminatsız": 3497,
      "yüksek": 3498,
      "etkilediğini": 3499,
      "tanıklarının": 3500,
      "gereğine": 3501,
      "koşullarına": 3502,
      "müşteriye": 3503,
      "heyet": 3504,
      "varılmıştır": 3505,
      "sunulmadığı": 3506,
      "Davalının": 3507,
      "ağırlıkta": 3508,
      "Gü": 3509,
      "sin": 3510,
      "asından": 3511,
      "imi": 3512,
      "başkaca": 3513,
      "kısım": 3514,
      "bozduğunu": 3515,
      "etkil": 3516,
      "değerlendirilmelidir": 3517,
      "venlik": 3518,
      "yükümlü": 3519,
      "gerçekleşen": 3520,
      "yapmaya": 3521,
      "yükletilmesine": 3522,
      "Güvenlik": 3523,
      "49": 3524,
      "71": 3525,
      "bab": 3526,
      "lum": 3527,
      "omik": 3528,
      "Çünkü": 3529,
      "şah": 3530,
      "almasından": 3531,
      "ekon": 3532,
      "geçe": 3533,
      "yana": 3534,
      "mesel": 3535,
      "hali": 3536,
      "liğini": 3537,
      "davalılara": 3538,
      "ilişkisinde": 3539,
      "döneminde": 3540,
      "sevki": 3541,
      "feshedilmediği": 3542,
      "gidilmesi": 3543,
      "ekonomik": 3544,
      "çi": 3545,
      "yatı": 3546,
      "hakkan": 3547,
      "belirli": 3548,
      "iadenin": 3549,
      "belirtilmiştir": 3550,
      "konum": 3551,
      "bildirdiği": 3552,
      "yılda": 3553,
      "hakkın": 3554,
      "çıkarıldığını": 3555,
      "performansı": 3556,
      "çıkması": 3557,
      "yoksun": 3558,
      "hakkaniyet": 3559,
      "vic": 3560,
      "Ön": 3561,
      "geçerlilik": 3562,
      "etik": 3563,
      "bur": 3564,
      "yarım": 3565,
      "kalite": 3566,
      "getirmediğini": 3567,
      "istediği": 3568,
      "memektedir": 3569,
      "menfaat": 3570,
      "gerektiren": 3571,
      "birimde": 3572,
      "istifade": 3573,
      "yaşadığı": 3574,
      "gerektiğine": 3575,
      "alacaklarının": 3576,
      "serg": 3577,
      "aksaklıklara": 3578,
      "oranında": 3579,
      "katlanmasının": 3580,
      "kasıtlı": 3581,
      "vicdan": 3582,
      "Dev": 3583,
      "Sa": 3584,
      "ğine": 3585,
      "ardına": 3586,
      "süreler": 3587,
      "yargıl": 3588,
      "memesine": 3589,
      "istenmesi": 3590,
      "hususu": 3591,
      "aranmasına": 3592,
      "ayrıl": 3593,
      "sahibi": 3594,
      "teşkil": 3595,
      "ecektir": 3596,
      "öğrendik": 3597,
      "duyur": 3598,
      "isimli": 3599,
      "Savun": 3600,
      "düğ": 3601,
      "ortal": 3602,
      "İşyerinde": 3603,
      "dırdığını": 3604,
      "haliyle": 3605,
      "yılına": 3606,
      "raporlardan": 3607,
      "meksizin": 3608,
      "geri": 3609,
      "kod": 3610,
      "tanığının": 3611,
      "edilmişse": 3612,
      "kişinin": 3613,
      "barışının": 3614,
      "bulundurul": 3615,
      ".(": 3616,
      "fer": 3617,
      "gr": 3618,
      "veri": 3619,
      "satış": 3620,
      "sözkonusudur": 3621,
      "bildirilen": 3622,
      "sebeplerden": 3623,
      "ağr": 3624,
      "itibari": 3625,
      "tanıkların": 3626,
      "ilamımız": 3627,
      "yasasının": 3628,
      "kısm": 3629,
      "doğurur": 3630,
      "aksatması": 3631,
      "ojistik": 3632,
      "Bayram": 3633,
      "May": 3634,
      "bına": 3635,
      "günleri": 3636,
      "devamlı": 3637,
      "kaybına": 3638,
      "getirirken": 3639,
      "düzenlenmiş": 3640,
      "doğruluk": 3641,
      "rolü": 3642,
      "hükmedilmesine": 3643,
      "huzursuz": 3644,
      "nezdindeki": 3645,
      "lüğünün": 3646,
      "Mayıs": 3647,
      "sen": 3648,
      "ğından": 3649,
      "Şu": 3650,
      "etmediğini": 3651,
      "ılıp": 3652,
      "gidi": 3653,
      "olduğuna": 3654,
      "edilemeyeceği": 3655,
      "başlanması": 3656,
      "kalmasına": 3657,
      "gelme": 3658,
      "yerindeki": 3659,
      "ölçülerde": 3660,
      "uluğ": 3661,
      "ayrılma": 3662,
      "incelenmesinde": 3663,
      "vardiyasında": 3664,
      "kadros": 3665,
      "etmesine": 3666,
      "gereksiz": 3667,
      "haiz": 3668,
      "işvereni": 3669,
      "çalışmasına": 3670,
      "hane": 3671,
      "yöneti": 3672,
      "beyanla": 3673,
      "edecek": 3674,
      "larındaki": 3675,
      "miktarı": 3676,
      "personellerin": 3677,
      "öneli": 3678,
      "görevlendirilen": 3679,
      "reddedildiği": 3680,
      "bendindeki": 3681,
      "makamının": 3682,
      "giderek": 3683,
      "ulusal": 3684,
      "kesi": 3685,
      "ira": 3686,
      "ekip": 3687,
      "etmektedir": 3688,
      "kabulünde": 3689,
      "yazlı": 3690,
      "olduğunuz": 3691,
      "fıkrasının": 3692,
      "istenmiş": 3693,
      "işlemlerin": 3694,
      "acağından": 3695,
      "ettiğinden": 3696,
      ".\"": 3697,
      "Sul": 3698,
      "Sulama": 3699,
      "malın": 3700,
      "ğerlendir": 3701,
      "vergi": 3702,
      "lerek": 3703,
      "lış": 3704,
      "laması": 3705,
      "yanlış": 3706,
      "sıklık": 3707,
      "suç": 3708,
      "sözleşmesinde": 3709,
      "amesi": 3710,
      "bildiği": 3711,
      "yönü": 3712,
      "kullanılmadığı": 3713,
      "Temizlik": 3714,
      "düzenlem": 3715,
      "kapa": 3716,
      "çıkardığını": 3717,
      "kapsamına": 3718,
      "akışı": 3719,
      "gerçekleştiği": 3720,
      "çalıştırmaya": 3721,
      "dairesine": 3722,
      "habersiz": 3723,
      "basın": 3724,
      "mcısı": 3725,
      "hep": 3726,
      "linik": 3727,
      "babasının": 3728,
      "konumunda": 3729,
      "Sulamanın": 3730,
      "ğerlendirilmelidir": 3731,
      "hut": 3732,
      "duğunda": 3733,
      "süreyle": 3734,
      "yapılmışsa": 3735,
      "ödenmesini": 3736,
      "oyçok": 3737,
      "çekilen": 3738,
      "gerçekten": 3739,
      "malarının": 3740,
      "planlamasında": 3741,
      "gerçekleşmediği": 3742,
      "yapmayı": 3743,
      "çıkış": 3744,
      "dayanaktan": 3745,
      "onayı": 3746,
      "yöneticileri": 3747,
      "tesisi": 3748,
      "uzman": 3749,
      "bl": 3750,
      "beş": 3751,
      "cel": 3752,
      "tarihe": 3753,
      "göremez": 3754,
      "tazminatlarının": 3755,
      "getirmemesi": 3756,
      "çalışanları": 3757,
      "düzenleme": 3758,
      "çıkarmak": 3759,
      "tutul": 3760,
      "tanıkları": 3761,
      "performansını": 3762,
      "bölümü": 3763,
      "ceza": 3764,
      "zarara": 3765,
      "yargılamanın": 3766,
      "98": 3767,
      "nedenin": 3768,
      "birbir": 3769,
      "melidir": 3770,
      "edilmektedir": 3771,
      "giderleri": 3772,
      "gerekçeleri": 3773,
      "dilekçe": 3774,
      "gözetilmeksizin": 3775,
      "iznini": 3776,
      "aile": 3777,
      "bat": 3778,
      "dosy": 3779,
      "ga": 3780,
      "lehine": 3781,
      "yapılma": 3782,
      "uyarında": 3783,
      "mekle": 3784,
      "rahatsızlığa": 3785,
      "241": 3786,
      "miktarda": 3787,
      "hususlar": 3788,
      "sonlandırıldığı": 3789,
      "barışını": 3790,
      "bilgilendir": 3791,
      "dayanmadığının": 3792,
      "kavuştur": 3793,
      "ödevli": 3794,
      "Açıklanan": 3795,
      "dosyalar": 3796,
      ",...": 3797,
      "Bil": 3798,
      "Lojistik": 3799,
      "sp": 3800,
      "yemek": 3801,
      "andırı": 3802,
      "vermeden": 3803,
      "nedenden": 3804,
      "işverende": 3805,
      "varılması": 3806,
      "alınmadığından": 3807,
      "tutanaklar": 3808,
      "tehlikeye": 3809,
      "andırıcı": 3810,
      "77": 3811,
      "kol": 3812,
      "koy": 3813,
      "verip": 3814,
      "ihmal": 3815,
      "onun": 3816,
      "sebepleriyle": 3817,
      "getirmemek": 3818,
      "edemediğini": 3819,
      "göstermediğini": 3820,
      "itibarı": 3821,
      "hükümler": 3822,
      "kısmen": 3823,
      "güvencesinden": 3824,
      "aksattığını": 3825,
      "mağdur": 3826,
      "leştirme": 3827,
      ".)": 3828,
      "ürü": 3829,
      "süresini": 3830,
      "makine": 3831,
      "olmadığının": 3832,
      "duruş": 3833,
      "süreleri": 3834,
      "devlet": 3835,
      "yönden": 3836,
      "edemeye": 3837,
      "olmadığınız": 3838,
      "uygulanan": 3839,
      "ötürü": 3840,
      "görevlendirme": 3841,
      "imkânı": 3842,
      "kanıtlaya": 3843,
      "gidip": 3844,
      "Yön": 3845,
      "noter": 3846,
      "rılabilmesi": 3847,
      "ve2005": 3848,
      "fesihle": 3849,
      "olmamasına": 3850,
      "uymadığı": 3851,
      "almada": 3852,
      "çıka": 3853,
      "zorluk": 3854,
      "gerektirir": 3855,
      "mahiyet": 3856,
      "operasyonlarının": 3857,
      "yaptırım": 3858,
      "abileceği": 3859,
      "bizzat": 3860,
      "Ra": 3861,
      "toz": 3862,
      "ilişki": 3863,
      "işverenlikte": 3864,
      "sürmesi": 3865,
      "sürül": 3866,
      "süresince": 3867,
      "halinin": 3868,
      "asl": 3869,
      "günde": 3870,
      "gerekçeler": 3871,
      "kullanıl": 3872,
      "gösteren": 3873,
      "planlama": 3874,
      "vekilince": 3875,
      "eylemin": 3876,
      "ettiklerini": 3877,
      "ardından": 3878,
      "Devam": 3879,
      "120": 3880,
      "dosyanın": 3881,
      "fre": 3882,
      "ödene": 3883,
      "arta": 3884,
      "denetim": 3885,
      "feshetme": 3886,
      "görün": 3887,
      "sürece": 3888,
      "durumuna": 3889,
      "akdinden": 3890,
      "hükme": 3891,
      "kullanarak": 3892,
      "planlarının": 3893,
      "geçmiştir": 3894,
      "sayıları": 3895,
      "takım": 3896,
      "güvensizlik": 3897,
      "miktarların": 3898,
      "kov": 3899,
      "dıklarından": 3900,
      "yakın": 3901,
      "bağlıdır": 3902,
      "güvencesine": 3903,
      "yaşa": 3904,
      "alınama": 3905,
      "maaşı": 3906,
      "zedelendiği": 3907,
      "geçecek": 3908,
      "ıyor": 3909,
      "yahut": 3910,
      "landığını": 3911,
      "hati": 3912,
      "edilemez": 3913,
      "uyma": 3914,
      "alanan": 3915,
      "anlaşılmış": 3916,
      "liliği": 3917,
      "olgus": 3918,
      "amirleri": 3919,
      "yöneticisi": 3920,
      "-...": 3921,
      "42": 3922,
      "74": 3923,
      "Böyle": 3924,
      "baz": 3925,
      "Şirk": 3926,
      "sair": 3927,
      "kam": 3928,
      "nedenleriyle": 3929,
      "yapmı": 3930,
      "sıkça": 3931,
      "çalışama": 3932,
      "sayılamaz": 3933,
      "kimi": 3934,
      "bilin": 3935,
      "amaç": 3936,
      "endikten": 3937,
      "emediğini": 3938,
      "sebeplerini": 3939,
      "ödenmeyen": 3940,
      "bildirimde": 3941,
      "istendikten": 3942,
      "yönler": 3943,
      "toplum": 3944,
      "dikleri": 3945,
      "gösterdiğini": 3946,
      "bilecek": 3947,
      "zamanında": 3948,
      "yükümlülüğ": 3949,
      "eyleminin": 3950,
      "davranışlarıdır": 3951,
      "lanmayacak": 3952,
      "iyeti": 3953,
      "ayrılı": 3954,
      "onaylanmayacak": 3955,
      "kimin": 3956,
      "kusurlu": 3957,
      "Komit": 3958,
      "hatırlatıldığı": 3959,
      "söylendiğini": 3960,
      "düzelt": 3961,
      "siyonu": 3962,
      "sırf": 3963,
      "istemediğini": 3964,
      "bazı": 3965,
      "yapmıyorsa": 3966,
      "toplumsal": 3967,
      "502": 3968,
      "fır": 3969,
      "süz": 3970,
      "saa": 3971,
      "2004": 3972,
      "sürülen": 3973,
      "amalar": 3974,
      "bulunmuş": 3975,
      "ikram": 3976,
      "başvurmadan": 3977,
      "yılları": 3978,
      "savunmadan": 3979,
      "doğan": 3980,
      "niteliği": 3981,
      "Maddenin": 3982,
      "anlatımla": 3983,
      "ihlali": 3984,
      "komitesinin": 3985,
      "bay": 3986,
      "uvar": 3987,
      "yolu": 3988,
      "iran": 3989,
      "kararlar": 3990,
      "bura": 3991,
      "davranışın": 3992,
      "bildirgesinde": 3993,
      "kulak": 3994,
      "tanıklar": 3995,
      "güvenliğini": 3996,
      "addit": 3997,
      "işletme": 3998,
      "Sendikası": 3999,
      "çoğunluğu": 4000,
      "Haziran": 4001,
      "pozisyonda": 4002,
      "müteaddit": 4003,
      "67": 4004,
      "AV": 4005,
      "Bunun": 4006,
      "DAV": 4007,
      "eği": 4008,
      "lılık": 4009,
      "up": 4010,
      "ıdaki": 4011,
      "olmakla": 4012,
      "veriş": 4013,
      "kararların": 4014,
      "nedenine": 4015,
      "masraf": 4016,
      "sürelerinin": 4017,
      "geçersizlik": 4018,
      "düşmemiştir": 4019,
      "ANIN": 4020,
      "sayılmıştır": 4021,
      "değerlendirmesinde": 4022,
      "uygulandığı": 4023,
      "kanıtlara": 4024,
      "haftayı": 4025,
      "kanunî": 4026,
      "müşteriler": 4027,
      "şaat": 4028,
      "yönüyle": 4029,
      "DAVANIN": 4030,
      "Kay": 4031,
      "ettikten": 4032,
      "lig": 4033,
      "Dava": 4034,
      "ayın": 4035,
      "yapmaması": 4036,
      "sıkın": 4037,
      "gören": 4038,
      "ılığa": 4039,
      "yapıldığının": 4040,
      "belirtmek": 4041,
      "eşinin": 4042,
      "ücretli": 4043,
      "dakika": 4044,
      "çalışmayı": 4045,
      "maddelerine": 4046,
      "bozulduğunu": 4047,
      "tanıklarından": 4048,
      "zamanlarda": 4049,
      "örneğin": 4050,
      "işletmesel": 4051,
      "bağlılığa": 4052,
      "seviyede": 4053,
      "Kaynak": 4054,
      "68": 4055,
      "vs": 4056,
      "akab": 4057,
      "sürdüğü": 4058,
      "hakların": 4059,
      "işyerinden": 4060,
      "aykırıdır": 4061,
      "katılma": 4062,
      "siya": 4063,
      "hizmetleri": 4064,
      "geçirdiğini": 4065,
      "keyf": 4066,
      "tamamen": 4067,
      "Hastanesi": 4068,
      "prosedürünün": 4069,
      "ihtarname": 4070,
      "artırdığını": 4071,
      "akabinde": 4072,
      "Tİ": 4073,
      "ele": 4074,
      "ptan": 4075,
      "sok": 4076,
      "almasını": 4077,
      "eniz": 4078,
      "saptan": 4079,
      "rast": 4080,
      "başarı": 4081,
      "kalarak": 4082,
      "ülk": 4083,
      "elde": 4084,
      "lemek": 4085,
      "ilkesinin": 4086,
      "aralıksız": 4087,
      "operasyonlarındaki": 4088,
      "ödeme": 4089,
      "savunmalarında": 4090,
      "ekiplerde": 4091,
      "vi": 4092,
      "yeti": 4093,
      "ilemez": 4094,
      "işleri": 4095,
      "izce": 4096,
      "mesinden": 4097,
      "kaldı": 4098,
      "kaydı": 4099,
      "sonradan": 4100,
      "ilişkisine": 4101,
      "belirlenmesinde": 4102,
      "aradığı": 4103,
      "ölçüt": 4104,
      "itirazları": 4105,
      "gittiğini": 4106,
      "varılmış": 4107,
      "şahs": 4108,
      "örgütlenme": 4109,
      "çoğunluğun": 4110,
      "külfet": 4111,
      "hakkaniyete": 4112,
      "4500": 4113,
      "Oper": 4114,
      "bölge": 4115,
      "gılama": 4116,
      "iyordu": 4117,
      "kıl": 4118,
      "klinik": 4119,
      "lin": 4120,
      "om": 4121,
      "pist": 4122,
      "aldığında": 4123,
      "irsal": 4124,
      "üret": 4125,
      "yapmakta": 4126,
      "önseri": 4127,
      "ilenme": 4128,
      "kaldıklarından": 4129,
      "konulama": 4130,
      "bildirdiğini": 4131,
      "kanunda": 4132,
      "kanuna": 4133,
      "kadarı": 4134,
      "hastalandıklarını": 4135,
      "kıdemine": 4136,
      "174": 4137,
      "taki": 4138,
      "sunduğu": 4139,
      "hükmünün": 4140,
      "gerekirse": 4141,
      "Yargılama": 4142,
      "zamanda": 4143,
      "bahis": 4144,
      "üretimi": 4145,
      "etmekte": 4146,
      "uygulamasına": 4147,
      "bağlanmıştır": 4148,
      "defalarca": 4149,
      "paylaşım": 4150,
      "basınç": 4151,
      "free": 4152,
      "4500502": 4153,
      "bbi": 4154,
      "ret": 4155,
      "satı": 4156,
      "sefer": 4157,
      "edilmemiştir": 4158,
      "raporlarda": 4159,
      "çalışmadığını": 4160,
      "acaktır": 4161,
      "üyeliği": 4162,
      "görülmemesine": 4163,
      "istirahati": 4164,
      "şarttır": 4165,
      "bina": 4166,
      "takdirinde": 4167,
      "kurulması": 4168,
      "çoğunun": 4169,
      "hastane": 4170,
      "sınırlı": 4171,
      "harçtan": 4172,
      "Kurum": 4173,
      "ispatlayamadığı": 4174,
      "onanması": 4175,
      "tavır": 4176,
      "fırsatı": 4177,
      "Hizmet": 4178,
      "ibar": 4179,
      "küç": 4180,
      "sesini": 4181,
      "yerek": 4182,
      "indir": 4183,
      "alacağı": 4184,
      "alır": 4185,
      "tıbbi": 4186,
      "verilmemesi": 4187,
      "reddinin": 4188,
      "ağın": 4189,
      "198": 4190,
      "297": 4191,
      "lanamamıştır": 4192,
      "hafif": 4193,
      "çıktığını": 4194,
      "açıklamaları": 4195,
      "rahatsızlıklardan": 4196,
      "tanıyan": 4197,
      "koşullarının": 4198,
      "kayıtlarından": 4199,
      "açığını": 4200,
      "kurumlarınca": 4201,
      "beklenemeyecek": 4202,
      "ederken": 4203,
      "fabrikada": 4204,
      "sıfat": 4205,
      "yüklenici": 4206,
      "yaptıkları": 4207,
      "kapatmak": 4208,
      "Savunma": 4209,
      "ayrılış": 4210,
      "Değ": 4211,
      "onel": 4212,
      "yonel": 4213,
      "olabilecek": 4214,
      "indeki": 4215,
      "ilmemesi": 4216,
      "yaparak": 4217,
      "özlük": 4218,
      "tifi": 4219,
      "yöntem": 4220,
      "kesinlikle": 4221,
      "düzenine": 4222,
      "doğar": 4223,
      "erlendirme": 4224,
      "bununla": 4225,
      "bileceğinin": 4226,
      "terk": 4227,
      "talebiyle": 4228,
      "yürütülen": 4229,
      "gerçeğe": 4230,
      "niyetli": 4231,
      "şef": 4232,
      "imkân": 4233,
      "servis": 4234,
      "Değerlendirme": 4235,
      "Kor": 4236,
      "Yetkili": 4237,
      "dın": 4238,
      "ide": 4239,
      "insiya": 4240,
      "davayı": 4241,
      "raporda": 4242,
      "işçilere": 4243,
      "özürlü": 4244,
      "içine": 4245,
      ".....": 4246,
      "taraflı": 4247,
      "belirtmiş": 4248,
      "bozuk": 4249,
      "ihbarsız": 4250,
      "göstererek": 4251,
      "bent": 4252,
      "çalıştırıldığı": 4253,
      "arkadaşlarına": 4254,
      "sonuçlarından": 4255,
      "Başka": 4256,
      "bulunulduğu": 4257,
      "teblig": 4258,
      "alacaklarını": 4259,
      "Müdürü": 4260,
      "anlatımlarına": 4261,
      "talebini": 4262,
      "keşif": 4263,
      "Asıl": 4264,
      "ortalama": 4265,
      "yönetici": 4266,
      "kabulündedir": 4267,
      "Koruma": 4268,
      "insiyatifi": 4269,
      "tebligat": 4270,
      "Uy": 4271,
      "hır": 4272,
      "İsp": 4273,
      "ıyorum": 4274,
      "şan": 4275,
      "“...": 4276,
      "kab": 4277,
      "lerince": 4278,
      "2000": 4279,
      "ona": 4280,
      "ayından": 4281,
      "astım": 4282,
      "günlerinin": 4283,
      "bildirerek": 4284,
      "geçici": 4285,
      "çıkarılması": 4286,
      "gösterir": 4287,
      "davaya": 4288,
      "işçilerini": 4289,
      "belgelerin": 4290,
      "gönderilen": 4291,
      "araştırılarak": 4292,
      "anlamına": 4293,
      "verilmişse": 4294,
      "alınamadığı": 4295,
      "teknolojik": 4296,
      "çıkartıldığı": 4297,
      "cevabı": 4298,
      "hırsızlık": 4299,
      "İspat": 4300,
      "Mart": 4301,
      "memeleri": 4302,
      "pek": 4303,
      "tür": 4304,
      "türlü": 4305,
      "davasında": 4306,
      "yaç": 4307,
      "sav": 4308,
      "edilmesinin": 4309,
      "feshedildiğinden": 4310,
      "okulu": 4311,
      "gelmeme": 4312,
      "bağla": 4313,
      "uzak": 4314,
      "alışkanlığı": 4315,
      "gözetilmeden": 4316,
      "firmanın": 4317,
      "özenle": 4318,
      "uyulmadığını": 4319,
      "ihtiyaç": 4320,
      "tahsilini": 4321,
      "korun": 4322,
      "bağlantılı": 4323,
      "adalet": 4324,
      "Şirket": 4325,
      "cinsel": 4326,
      "psik": 4327,
      "vermesinin": 4328,
      "celikle": 4329,
      "aşa": 4330,
      "maktu": 4331,
      "çalışıl": 4332,
      "bulunmakta": 4333,
      "ÖzetiDavacı": 4334,
      "davranışlardan": 4335,
      "giderlerinin": 4336,
      "anlaşılması": 4337,
      "şirketçe": 4338,
      "düzey": 4339,
      "sorunlarının": 4340,
      "eksiksiz": 4341,
      "görüşüne": 4342,
      "şikayette": 4343,
      "Öncelikle": 4344,
      "Tur": 4345,
      "ekibi": 4346,
      "olmuş": 4347,
      "alınmasının": 4348,
      "gördüğü": 4349,
      "ilişkinin": 4350,
      "yolcu": 4351,
      "içeren": 4352,
      "ücretlerin": 4353,
      "uçak": 4354,
      "davadaki": 4355,
      "ahla": 4356,
      "şartlarından": 4357,
      "silahla": 4358,
      "sözleşmeleri": 4359,
      "kanununun": 4360,
      "anlamında": 4361,
      "benzeri": 4362,
      "Av": 4363,
      "zu": 4364,
      "ank": 4365,
      "akta": 4366,
      "acılık": 4367,
      "ize": 4368,
      "çalışıp": 4369,
      "yapılmış": 4370,
      "tırma": 4371,
      "kullanılması": 4372,
      "Dairesinin": 4373,
      "mevzu": 4374,
      "erdirildiği": 4375,
      "incelenmesine": 4376,
      "taşımadığı": 4377,
      "ettiğinin": 4378,
      "süreçte": 4379,
      "Rapor": 4380,
      "100": 4381,
      "Hav": 4382,
      "Tut": 4383,
      "kına": 4384,
      "leket": 4385,
      "yuvar": 4386,
      "aksine": 4387,
      "vermez": 4388,
      "karşıl": 4389,
      "aşmayan": 4390,
      "bulunduğunun": 4391,
      "mesiyle": 4392,
      "kullandırıl": 4393,
      "memleket": 4394,
      "belirlenerek": 4395,
      "sayılmadığı": 4396,
      "çıkarıldığı": 4397,
      "görüldüğünü": 4398,
      "kendisiyle": 4399,
      "bendinin": 4400,
      "arkadaşları": 4401,
      "sözleşmedeki": 4402,
      "avansında": 4403,
      "ettirmesi": 4404,
      "malzem": 4405,
      "refakat": 4406,
      "yetkililerinin": 4407,
      "eklenmesiyle": 4408,
      "Tutan": 4409,
      "kınama": 4410,
      "bilme": 4411,
      "acı": 4412,
      "emektedir": 4413,
      "ücretlerinin": 4414,
      "bildirimiyle": 4415,
      "olaylar": 4416,
      "çalışanlarının": 4417,
      "görülmeyerek": 4418,
      "kurala": 4419,
      "ameliyatı": 4420,
      "üste": 4421,
      "373": 4422,
      "adil": 4423,
      "bilm": 4424,
      "hede": 4425,
      "kg": 4426,
      "kalır": 4427,
      "nolu": 4428,
      "ncu": 4429,
      "rne": 4430,
      "tanın": 4431,
      "yal": 4432,
      "Örne": 4433,
      "İhale": 4434,
      "arlama": 4435,
      "yabilir": 4436,
      "lediği": 4437,
      "karış": 4438,
      "ediş": 4439,
      "gerekmiş": 4440,
      "yanı": 4441,
      "olduğunda": 4442,
      "yıldır": 4443,
      "azarlama": 4444,
      "sağlığı": 4445,
      "sağlığını": 4446,
      "düzenli": 4447,
      "dürüst": 4448,
      "hükmedile": 4449,
      "çıkarmış": 4450,
      "gösterilmiş": 4451,
      "sendikasız": 4452,
      "şartlar": 4453,
      "hususta": 4454,
      "planlaması": 4455,
      "çalıştırılan": 4456,
      "hususları": 4457,
      "etmekle": 4458,
      "alacakları": 4459,
      "Sendikasının": 4460,
      "sınırları": 4461,
      "zorunluluğ": 4462,
      "eleman": 4463,
      "ispatıdır": 4464,
      "sıfatı": 4465,
      "öğrenme": 4466,
      "vicdani": 4467,
      "bilgilendirme": 4468,
      "Komitesi": 4469,
      "burada": 4470,
      "küçül": 4471,
      "bilmi": 4472,
      "hedef": 4473,
      "Örneğin": 4474,
      "karışan": 4475,
      "dürüstlük": 4476,
      "hükmedilebilmesi": 4477,
      "92": 4478,
      "birkaç": 4479,
      "asyonel": 4480,
      "raporlarına": 4481,
      "çalışanlara": 4482,
      "yürürlüğ": 4483,
      "değerlendirilerek": 4484,
      "gösterildiğini": 4485,
      "güvenini": 4486,
      "edilmeli": 4487,
      "öncesine": 4488,
      "Kurul": 4489,
      "ümüyle": 4490,
      "firmada": 4491,
      "Davalılar": 4492,
      "başlangı": 4493,
      "yüklemektedir": 4494,
      "tartışması": 4495,
      "öğrendikleri": 4496,
      "kadrosunda": 4497,
      "oyçokluğu": 4498,
      "getirmemekle": 4499,
      "eğiti": 4500,
      "yürürlüğe": 4501,
      ".).": 4502,
      "kılmaz": 4503,
      "merkez": 4504,
      "sini": 4505,
      "ök": 4506,
      "dey": 4507,
      "almanın": 4508,
      "kararda": 4509,
      "gereklerini": 4510,
      "birinci": 4511,
      "yansı": 4512,
      "ayarak": 4513,
      "çalışmış": 4514,
      "saygı": 4515,
      "caeli": 4516,
      "uyduğunu": 4517,
      "kullanma": 4518,
      "çev": 4519,
      "inceye": 4520,
      "KAR": 4521,
      "rahatsızlığından": 4522,
      "değerlendirmesi": 4523,
      "görülmemiştir": 4524,
      "derecede": 4525,
      "sunmadığı": 4526,
      "alarında": 4527,
      "kanıtlanması": 4528,
      "gözardı": 4529,
      "iddiasıyla": 4530,
      "imzası": 4531,
      "tehdit": 4532,
      "Kocaeli": 4533,
      "kanıtlayacaktır": 4534,
      "ihtarnamesi": 4535,
      "edilemeyecek": 4536,
      "kısmında": 4537,
      "göremezlik": 4538,
      "birbirinden": 4539,
      "Devamsızlık": 4540,
      "63": 4541,
      "Gör": 4542,
      "Sağ": 4543,
      "Vek": 4544,
      "med": 4545,
      "yönel": 4546,
      "taahh": 4547,
      "alınmışsa": 4548,
      "mediğinden": 4549,
      "gerekçesine": 4550,
      "amıyorum": 4551,
      "edilem": 4552,
      "amayacağını": 4553,
      "davranışlarına": 4554,
      "şekli": 4555,
      "etkisi": 4556,
      "ücretleri": 4557,
      "geliştir": 4558,
      "işçide": 4559,
      "suretle": 4560,
      "beyanında": 4561,
      "çıkarılarak": 4562,
      "varılarak": 4563,
      "güne": 4564,
      "süreklilik": 4565,
      "hususlarla": 4566,
      "ihtarı": 4567,
      "isteksiz": 4568,
      "araştırılması": 4569,
      "olunamadığı": 4570,
      "rahatsızlıklarının": 4571,
      "borç": 4572,
      "işletilip": 4573,
      "işletilmediği": 4574,
      "kapsamıyla": 4575,
      "kontrolü": 4576,
      "davalarında": 4577,
      "katılamıyorum": 4578,
      "bağıtlanmadığı": 4579,
      "bağıtlanıp": 4580,
      "aslında": 4581,
      "ölçütler": 4582,
      "Vekilinin": 4583,
      "yönelt": 4584,
      "Kr": 4585,
      "arama": 4586,
      "gerekecektir": 4587,
      "İşyeri": 4588,
      "tic": 4589,
      "yapılmadan": 4590,
      "davrandığı": 4591,
      "ücretin": 4592,
      "ısını": 4593,
      "bildiriminden": 4594,
      "raporlarını": 4595,
      "görevde": 4596,
      "düşt": 4597,
      "savunmada": 4598,
      "aşağıda": 4599,
      "Dosyada": 4600,
      "sayılabilecek": 4601,
      "koşullarından": 4602,
      "bilirkiş": 4603,
      "oluşmadığı": 4604,
      "imkanının": 4605,
      "toplant": 4606,
      "düşünc": 4607,
      "taşıma": 4608,
      "eğer": 4609,
      "yazısını": 4610,
      "47": 4611,
      "Pİ": 4612,
      "TİNE": 4613,
      "TES": 4614,
      "gari": 4615,
      "ğın": 4616,
      "şüp": 4617,
      "almaksızın": 4618,
      "beden": 4619,
      "2001": 4620,
      "ile1": 4621,
      "desi": 4622,
      "görmekte": 4623,
      "imal": 4624,
      "günlü": 4625,
      "yapılmak": 4626,
      "uymaması": 4627,
      "uyarılar": 4628,
      "gelemediği": 4629,
      "aralıklarla": 4630,
      "gönderdiği": 4631,
      "sonuçları": 4632,
      "sözleşmeyi": 4633,
      "dışındaki": 4634,
      "telefonla": 4635,
      "cezaları": 4636,
      "PİTİNE": 4637,
      "TESPİTİNE": 4638,
      "Tüm": 4639,
      "bz": 4640,
      "ciddi": 4641,
      "gesi": 4642,
      "solun": 4643,
      "yacağının": 4644,
      "aley": 4645,
      "olas": 4646,
      "bulan": 4647,
      "işverenler": 4648,
      "çalışıldığı": 4649,
      "stan": 4650,
      "kabulünün": 4651,
      "sürelerini": 4652,
      "hatt": 4653,
      "davranması": 4654,
      "devamsızlığın": 4655,
      "liliğine": 4656,
      "göstermek": 4657,
      "görüldüğü": 4658,
      "tutulan": 4659,
      "mişse": 4660,
      "çalıştırılması": 4661,
      "bunların": 4662,
      "alınmayarak": 4663,
      "baga": 4664,
      "çalışmaları": 4665,
      "koru": 4666,
      "dayanmamaktadır": 4667,
      "ınıza": 4668,
      "yardımcısı": 4669,
      "disiplinini": 4670,
      "sıklıkla": 4671,
      "TİS": 4672,
      "binaen": 4673,
      "bze": 4674,
      "solunum": 4675,
      "bagaj": 4676,
      "39": 4677,
      "bes": 4678,
      "sından": 4679,
      "çiz": 4680,
      "inandırıcı": 4681,
      "vermiş": 4682,
      "ayına": 4683,
      "İşlet": 4684,
      "yaralan": 4685,
      "belirten": 4686,
      "içindeki": 4687,
      "ülük": 4688,
      "yılının": 4689,
      "çalışmamış": 4690,
      "görevin": 4691,
      "sendikasına": 4692,
      "zorlaş": 4693,
      "etkileyi": 4694,
      "tutulduğu": 4695,
      "kendisinde": 4696,
      "bulunmayan": 4697,
      "isabetlidir": 4698,
      "cezalarının": 4699,
      "çizel": 4700,
      "etkileyici": 4701,
      "400": 4702,
      "Bilg": 4703,
      "Ekim": 4704,
      "nde": 4705,
      "osu": 4706,
      "omuz": 4707,
      "sulama": 4708,
      "inkar": 4709,
      "ildiğinde": 4710,
      "izne": 4711,
      "karardan": 4712,
      "raporunu": 4713,
      "ılır": 4714,
      "sayı": 4715,
      "sözleşmeniz": 4716,
      "kısıt": 4717,
      "yargılan": 4718,
      "geçersizdir": 4719,
      "128": 4720,
      "gösterilmediği": 4721,
      "aksamaya": 4722,
      "kararımız": 4723,
      "edilecek": 4724,
      "katılmadığı": 4725,
      "sunum": 4726,
      "Çalışan": 4727,
      "kazanan": 4728,
      "disiplini": 4729,
      "kuralına": 4730,
      "sorunlarından": 4731,
      "tutanakları": 4732,
      "cezalan": 4733,
      "seviy": 4734,
      "aranma": 4735,
      "Sözleşmesinin": 4736,
      "kayıtları": 4737,
      "kişiye": 4738,
      "personele": 4739,
      "duklarını": 4740,
      "anlatımları": 4741,
      "doğruladığı": 4742,
      "latmaya": 4743,
      "ahlakına": 4744,
      "hukukî": 4745,
      "eğilip": 4746,
      "imzala": 4747,
      "reddedilmiştir": 4748,
      "yavaşlatmaya": 4749,
      "bankada": 4750,
      "Noterliği": 4751,
      "gelecekte": 4752,
      "sevkiyatın": 4753,
      "ayrılmak": 4754,
      "kodlu": 4755,
      "huzursuzluk": 4756,
      "Şubat": 4757,
      "bildiğim": 4758,
      "kapağını": 4759,
      "Yönetim": 4760,
      "denetimi": 4761,
      "irsaliye": 4762,
      "konulamadığı": 4763,
      "malzemenin": 4764,
      "refakatçi": 4765,
      "Bilgilenme": 4766,
      "kısıtlanması": 4767,
      "yargılanma": 4768,
      "95": 4769,
      "MM": 4770,
      "OY": 4771,
      "sk": 4772,
      "ğunu": 4773,
      "ŞI": 4774,
      "almıştır": 4775,
      "mada": 4776,
      "yapmasının": 4777,
      "yapmasını": 4778,
      "belinde": 4779,
      "temin": 4780,
      "savunul": 4781,
      "belirtilmeli": 4782,
      "dart": 4783,
      "tanım": 4784,
      "sayılacağının": 4785,
      "İşçiye": 4786,
      "gösterilmesi": 4787,
      "göstermeden": 4788,
      "kazasına": 4789,
      "işçilerden": 4790,
      "bileceğini": 4791,
      "güveni": 4792,
      "bağdaş": 4793,
      "ayasanın": 4794,
      "koşulu": 4795,
      "onaylanarak": 4796,
      "sınırın": 4797,
      "karşılığı": 4798,
      "mızın": 4799,
      "hatırlatılması": 4800,
      "verebileceğinin": 4801,
      "hava": 4802,
      "yüklememektedir": 4803,
      "vazgeçmiş": 4804,
      "tartışmasız": 4805,
      "KARŞI": 4806,
      "Des": 4807,
      "KES": 4808,
      "Satı": 4809,
      "gulan": 4810,
      "kere": 4811,
      "pan": 4812,
      "ses": 4813,
      "van": 4814,
      "çök": 4815,
      "işinde": 4816,
      "liyet": 4817,
      "vermemesi": 4818,
      "denet": 4819,
      "karara": 4820,
      "feshetmek": 4821,
      "lanmıştır": 4822,
      "alınmaz": 4823,
      "alınmasında": 4824,
      "fesihlere": 4825,
      "diğiniz": 4826,
      "gide": 4827,
      "sebepsiz": 4828,
      "bulunmasına": 4829,
      "bulunmanız": 4830,
      "uyarıldığını": 4831,
      "akdin": 4832,
      "irkişi": 4833,
      "açıklanmıştır": 4834,
      "bildirir": 4835,
      "bildirmeden": 4836,
      "başvurul": 4837,
      "alanı": 4838,
      "şirketten": 4839,
      "gelmeyen": 4840,
      "beklediği": 4841,
      "düşmemektedir": 4842,
      "bırakıldığını": 4843,
      "rahatsızlığına": 4844,
      "evrak": 4845,
      "göstermeye": 4846,
      "aksamalar": 4847,
      "hizmetin": 4848,
      "müvekkilini": 4849,
      "operasyonu": 4850,
      "haberdar": 4851,
      "sırada": 4852,
      "görüşmeleri": 4853,
      "ortamını": 4854,
      "çıkarılabilmesi": 4855,
      "sahiptir": 4856,
      "engellen": 4857,
      "şeyden": 4858,
      "gelmemenin": 4859,
      "kanaatimizi": 4860,
      "tamamlanma": 4861,
      "düğüm": 4862,
      "Bilirkişi": 4863,
      "Destek": 4864,
      "KESİN": 4865,
      "84": 4866,
      "Ne": 4867,
      "aa": 4868,
      "adına": 4869,
      "Şek": 4870,
      "artış": 4871,
      "dediğini": 4872,
      "verilip": 4873,
      "kararlılık": 4874,
      "sıkı": 4875,
      "özgü": 4876,
      "olduğum": 4877,
      "lıklı": 4878,
      "başlıklı": 4879,
      "hatta": 4880,
      "açıklığa": 4881,
      "elinden": 4882,
      "alanların": 4883,
      "yıla": 4884,
      "azalması": 4885,
      "anlaşılmasına": 4886,
      "itesi": 4887,
      "mutfak": 4888,
      "ilişkindir": 4889,
      "görülen": 4890,
      "ayrım": 4891,
      "edilmediğini": 4892,
      "sunulu": 4893,
      "aları": 4894,
      "dinlenme": 4895,
      "yakalan": 4896,
      "hastaneden": 4897,
      "bulunulduğunu": 4898,
      "sonlandır": 4899,
      "ortamda": 4900,
      "toplantıda": 4901,
      "çoğunluğunun": 4902,
      "etkileyecek": 4903,
      "biliyorum": 4904,
      "921": 4905,
      "Dönem": 4906,
      "bran": 4907,
      "ikay": 4908,
      "ncı": 4909,
      "sar": 4910,
      "öd": 4911,
      "davasını": 4912,
      "akit": 4913,
      "tarım": 4914,
      "ileceği": 4915,
      "çerçev": 4916,
      "raporlarından": 4917,
      "laya": 4918,
      "yerler": 4919,
      "çalışamaz": 4920,
      "amik": 4921,
      "dayanağı": 4922,
      "iadesinin": 4923,
      "yapılacağı": 4924,
      "uyu": 4925,
      "uydur": 4926,
      "eşi": 4927,
      "ilerle": 4928,
      "talebin": 4929,
      "elli": 4930,
      "yıllara": 4931,
      "anlaşılacağı": 4932,
      "bildirimine": 4933,
      "iptal": 4934,
      "edeceğini": 4935,
      "aksadığı": 4936,
      "tanıklardan": 4937,
      "konudaki": 4938,
      "dinamik": 4939,
      "kesinleşinceye": 4940,
      "dairemiz": 4941,
      "giren": 4942,
      "çıkan": 4943,
      "itirazı": 4944,
      "kalanların": 4945,
      "görevlendirildiği": 4946,
      "haftanın": 4947,
      "çalışmalarını": 4948,
      "yapmaktan": 4949,
      "Hükm": 4950,
      "ihtimali": 4951,
      "bahsi": 4952,
      "duyul": 4953,
      "Birleştirme": 4954,
      "verebilir": 4955,
      "İçtih": 4956,
      "kesim": 4957,
      "konumundaki": 4958,
      "Operasyon": 4959,
      "merkezi": 4960,
      "ticari": 4961,
      "branş": 4962,
      "çerçevesinde": 4963,
      "-(": 4964,
      "Kon": 4965,
      "kın": 4966,
      "kılı": 4967,
      "lemeye": 4968,
      "talı": 4969,
      "yken": 4970,
      "çağr": 4971,
      "insan": 4972,
      "ortalı": 4973,
      "tarihindeki": 4974,
      "günlere": 4975,
      "kalması": 4976,
      "uyarıldığı": 4977,
      "giderinden": 4978,
      "opa": 4979,
      "ilgisi": 4980,
      "ücretinden": 4981,
      "müvekkile": 4982,
      "iddiasında": 4983,
      "rahatsızlanıp": 4984,
      "kuralı": 4985,
      "değerlendirmesini": 4986,
      "performansa": 4987,
      "taktir": 4988,
      "ayağının": 4989,
      "uygulanma": 4990,
      "uluğa": 4991,
      "tespitinde": 4992,
      "oluşturul": 4993,
      "vekillerince": 4994,
      "usulü": 4995,
      "doktorun": 4996,
      "alınamadığını": 4997,
      "ulaşma": 4998,
      "görüşmek": 4999,
      "feshedilmediğinin": 5000,
      "sigortalı": 5001,
      "sergile": 5002,
      "bulundurulduğunda": 5003,
      "ailevi": 5004,
      "Uyuşmazlık": 5005,
      "Sağlık": 5006,
      "aleyhine": 5007,
      "sigortalısı": 5008,
      "Mak": 5009,
      "eleri": 5010,
      "hiz": 5011,
      "ikaz": 5012,
      "lüz": 5013,
      "meti": 5014,
      "peş": 5015,
      "sinde": 5016,
      "traf": 5017,
      "Öte": 5018,
      "arda": 5019,
      "arım": 5020,
      "işim": 5021,
      "unca": 5022,
      "ileş": 5023,
      "bulma": 5024,
      "işverenle": 5025,
      "haklar": 5026,
      "verilmeden": 5027,
      "açıp": 5028,
      "kayde": 5029,
      "yeterlidir": 5030,
      "anlaşılan": 5031,
      "istisn": 5032,
      "isteyen": 5033,
      "104": 5034,
      "devamsızlıklarının": 5035,
      "beklenmemesi": 5036,
      "başlatması": 5037,
      "zorla": 5038,
      "dönemi": 5039,
      "Yardı": 5040,
      "olgulara": 5041,
      "eylemleri": 5042,
      "lanmamış": 5043,
      "doktora": 5044,
      "uygulamalar": 5045,
      "iyileş": 5046,
      "sekiz": 5047,
      "tacize": 5048,
      "iddiaların": 5049,
      "etkileyeceği": 5050,
      "Bayramı": 5051,
      "çalışamayacağının": 5052,
      "keyfili": 5053,
      "bahisle": 5054,
      "korunması": 5055,
      "düştüğü": 5056,
      "hizmeti": 5057,
      "lüzum": 5058,
      "trafik": 5059,
      "53": 5060,
      "69": 5061,
      "Ek": 5062,
      "Ob": 5063,
      "aplan": 5064,
      "ğaz": 5065,
      "ilemesi": 5066,
      "emir": 5067,
      "list": 5068,
      "sadi": 5069,
      "sataş": 5070,
      "kararları": 5071,
      "tah": 5072,
      "tığına": 5073,
      "Mağaz": 5074,
      "çalışılması": 5075,
      "çalışıldığını": 5076,
      "tisadi": 5077,
      "göreve": 5078,
      "amadığını": 5079,
      "açıklık": 5080,
      "liğe": 5081,
      "getirilmiştir": 5082,
      "çalışanını": 5083,
      "ortada": 5084,
      "beyanlarına": 5085,
      "edemediği": 5086,
      "kararıyla": 5087,
      "edici": 5088,
      "delilleri": 5089,
      "bulunmamıştır": 5090,
      "tutarındaki": 5091,
      "bahane": 5092,
      "isabetsiz": 5093,
      "serbes": 5094,
      "yöneticilerinin": 5095,
      "hesaplan": 5096,
      "ettiğine": 5097,
      "pozisyonunda": 5098,
      "şarta": 5099,
      "hâlinde": 5100,
      "isnat": 5101,
      "Eksik": 5102,
      "Objektif": 5103,
      "serbest": 5104,
      ".,": 5105,
      "41": 5106,
      "46": 5107,
      "Ak": 5108,
      "Din": 5109,
      "fek": 5110,
      "hi": 5111,
      "Üst": 5112,
      "arasından": 5113,
      "enfek": 5114,
      "olsun": 5115,
      "verme": 5116,
      "kararlarında": 5117,
      "alınmasını": 5118,
      "aştığı": 5119,
      "bildirilmiş": 5120,
      "değer": 5121,
      "tazminatlarını": 5122,
      "mahkememiz": 5123,
      "hükmedilme": 5124,
      "üyeliğinden": 5125,
      "veriminin": 5126,
      "işçilerle": 5127,
      "ölçül": 5128,
      "gönderildiğini": 5129,
      "bahse": 5130,
      "Gebze": 5131,
      "makamı": 5132,
      "içeriklerine": 5133,
      "hâkimi": 5134,
      "kavram": 5135,
      "incelemesinden": 5136,
      "yardım": 5137,
      "disiplinine": 5138,
      "bulunduğundan": 5139,
      "suçla": 5140,
      "Dinlen": 5141,
      "hükmedilmez": 5142,
      "130": 5143,
      "Sosyal": 5144,
      "mük": 5145,
      "çab": 5146,
      "alak": 5147,
      "aldığına": 5148,
      "olmaları": 5149,
      "davacılar": 5150,
      "izleme": 5151,
      "diren": 5152,
      "ayakta": 5153,
      "gerekçelerinin": 5154,
      "başlayan": 5155,
      "kadardı": 5156,
      "geldiğinde": 5157,
      "dosyasına": 5158,
      "olayı": 5159,
      "şartn": 5160,
      "mevcuttur": 5161,
      "Müdürlüğünün": 5162,
      "ısrarla": 5163,
      "şoförü": 5164,
      "husumetli": 5165,
      "müteahh": 5166,
      "İnşaat": 5167,
      "yazısının": 5168,
      "Avukatlık": 5169,
      "küçülmesi": 5170,
      "bilmiyorum": 5171,
      "başlangıç": 5172,
      "52": 5173,
      "Ve": 5174,
      "adan": 5175,
      "güye": 5176,
      "iden": 5177,
      "kalındığını": 5178,
      "pol": 5179,
      "üb": 5180,
      "ilet": 5181,
      "almanız": 5182,
      "ılmış": 5183,
      "ortak": 5184,
      "tarak": 5185,
      "tabl": 5186,
      "görgüye": 5187,
      "maktan": 5188,
      "gidil": 5189,
      "açan": 5190,
      "kayıp": 5191,
      "anlaş": 5192,
      "...”": 5193,
      "bildirimin": 5194,
      "kullanmış": 5195,
      "dosyasında": 5196,
      "112": 5197,
      "düşmesi": 5198,
      "diklerini": 5199,
      "Temyizin": 5200,
      "kapas": 5201,
      "devamsızlıkları": 5202,
      "içeriğinde": 5203,
      "hükmünü": 5204,
      "kazasından": 5205,
      "izinlerini": 5206,
      "akışında": 5207,
      "istirahatlerin": 5208,
      "kendisi": 5209,
      "uçuşa": 5210,
      "bağlam": 5211,
      "dinlet": 5212,
      "operasyonel": 5213,
      "Kanununa": 5214,
      "kazandığı": 5215,
      "138": 5216,
      "ağırlığı": 5217,
      "ikame": 5218,
      "görevlendirilmek": 5219,
      "geçirmiş": 5220,
      "namesinde": 5221,
      "kurumlarından": 5222,
      "Hazine": 5223,
      "aksaklığa": 5224,
      "talimatı": 5225,
      "avansından": 5226,
      "abileceğini": 5227,
      "imzalat": 5228,
      "kanaatiyle": 5229,
      "başlanılması": 5230,
      "Artan": 5231,
      "anlatılan": 5232,
      "menfaatlerinin": 5233,
      ",...-": 5234,
      "ödeneceği": 5235,
      "yükümlülüğünün": 5236,
      "saate": 5237,
      "belirtmişlerdir": 5238,
      "memleketine": 5239,
      "Tutanak": 5240,
      "deyişle": 5241,
      "imzalamaktan": 5242,
      "2353": 5243,
      "ALE": 5244,
      "ET": 5245,
      "FET": 5246,
      "Hİ": 5247,
      "HALE": 5248,
      "MU": 5249,
      "ai": 5250,
      "elik": 5251,
      "senin": 5252,
      "yum": 5253,
      "Çelik": 5254,
      "ŞER": 5255,
      "şikay": 5256,
      "layarak": 5257,
      "alınmak": 5258,
      "üzit": 5259,
      "hariç": 5260,
      "sebeplerinin": 5261,
      "1868": 5262,
      "raporlarla": 5263,
      "158": 5264,
      "malarını": 5265,
      "sürekliliği": 5266,
      "hekiminin": 5267,
      "Çalışma": 5268,
      "2821": 5269,
      "memurlarının": 5270,
      "lindeki": 5271,
      "alınmamıştır": 5272,
      "rahatsızlıklarından": 5273,
      "itirazın": 5274,
      "işletmeye": 5275,
      "sahteliğinin": 5276,
      "erdirilmesine": 5277,
      "oluştuğunu": 5278,
      "hükmüne": 5279,
      "talimatlara": 5280,
      "keşide": 5281,
      "temsilcisi": 5282,
      "kuşkusuz": 5283,
      "sinüzit": 5284,
      "kavuşturul": 5285,
      "bozukluğu": 5286,
      "Şeklindeki": 5287,
      "23538": 5288,
      "HİDosyadaki": 5289,
      "HALEFET": 5290,
      "MUHALEFET": 5291,
      "ŞERHİDosyadaki": 5292,
      "şikayeti": 5293,
      ".-": 5294,
      "De": 5295,
      "Tıp": 5296,
      "ep": 5297,
      "idir": 5298,
      "mil": 5299,
      "müz": 5300,
      "pazarlama": 5301,
      "vb": 5302,
      "yvan": 5303,
      "arında": 5304,
      "diye": 5305,
      "emesine": 5306,
      "yerinden": 5307,
      "hayvan": 5308,
      "suisti": 5309,
      "haklarına": 5310,
      "edilse": 5311,
      "savunulduğu": 5312,
      "kalp": 5313,
      "devamının": 5314,
      "belirtilmediği": 5315,
      "davrandığını": 5316,
      "bildirmek": 5317,
      "iklim": 5318,
      "olanların": 5319,
      "olumsuzluklar": 5320,
      "olumsuzlukları": 5321,
      "anlaşıldığını": 5322,
      "yönlendir": 5323,
      "getirmekte": 5324,
      "getirmeyerek": 5325,
      "ispatlanmadığı": 5326,
      "başlatılmadığı": 5327,
      "tuğu": 5328,
      "değerlendirilmesine": 5329,
      "vardır": 5330,
      "aksamaması": 5331,
      "kaldırılmasını": 5332,
      "güç": 5333,
      "gerektirdiği": 5334,
      "gününe": 5335,
      "Çalışana": 5336,
      "dönemin": 5337,
      "mahsubuna": 5338,
      "dinlenilen": 5339,
      "adedinin": 5340,
      "tedaviye": 5341,
      "etkilenmesi": 5342,
      "kanunları": 5343,
      "luğundan": 5344,
      "itirazının": 5345,
      "itirazında": 5346,
      "alışkanlığından": 5347,
      "sorumlusu": 5348,
      "uygulama": 5349,
      "Alınan": 5350,
      "etmeleri": 5351,
      "şikayetlerine": 5352,
      "ödemeden": 5353,
      "tabiidir": 5354,
      "iddialarının": 5355,
      "reddetme": 5356,
      "yoğunlaş": 5357,
      "İnsan": 5358,
      "dönerek": 5359,
      "kaldırmaz": 5360,
      "belirtilmemiştir": 5361,
      "hesaba": 5362,
      "içtihatlarına": 5363,
      "yarattığı": 5364,
      "hepsini": 5365,
      "blok": 5366,
      "medya": 5367,
      "Ta": 5368,
      "drol": 5369,
      "kolay": 5370,
      "nün": 5371,
      "uya": 5372,
      "”...": 5373,
      "almasına": 5374,
      "oldu": 5375,
      "yas": 5376,
      "gerekmektedir": 5377,
      "seç": 5378,
      "süreci": 5379,
      "edilmemesi": 5380,
      "yapılmamıştır": 5381,
      "uyulması": 5382,
      "yazdığı": 5383,
      "işkili": 5384,
      "anlaşılmakta": 5385,
      "taleplerinin": 5386,
      "kullanan": 5387,
      "iptali": 5388,
      "bozulması": 5389,
      "tutularak": 5390,
      "hizmetlerinde": 5391,
      "Belirsiz": 5392,
      "kurulunun": 5393,
      "araştırmaya": 5394,
      "alınmamış": 5395,
      "mezunu": 5396,
      "sakınca": 5397,
      "bordrol": 5398,
      "koşullarını": 5399,
      "hastalığına": 5400,
      "Sözleşmenin": 5401,
      "ibran": 5402,
      "Muhtelif": 5403,
      "feshedebilir": 5404,
      "verilmediğini": 5405,
      "savunmalarına": 5406,
      "başvuruda": 5407,
      "bulundurularak": 5408,
      "havay": 5409,
      "şubede": 5410,
      "çelişkili": 5411,
      "edilemeyeceğini": 5412,
      "kavuşturulması": 5413,
      "şahsi": 5414,
      "savsa": 5415,
      "aşamasında": 5416,
      "eğitimi": 5417,
      "bedensel": 5418,
      "bağlamda": 5419,
      "Per": 5420,
      "bilmek": 5421,
      "cü": 5422,
      "fes": 5423,
      "pos": 5424,
      "sili": 5425,
      "yip": 5426,
      "Ür": 5427,
      "aralarında": 5428,
      "erdiğini": 5429,
      "ilan": 5430,
      "kart": 5431,
      "gelerek": 5432,
      "isk": 5433,
      "raporundan": 5434,
      "tıp": 5435,
      "tığından": 5436,
      "üncü": 5437,
      "duğundan": 5438,
      "çalışmasında": 5439,
      "sürelerle": 5440,
      "belirtilmek": 5441,
      "verilerek": 5442,
      "düzeninde": 5443,
      "beyanların": 5444,
      "göstermemesi": 5445,
      "aksatıp": 5446,
      "sürdürdüğünü": 5447,
      "değişikliğine": 5448,
      "feshedilebilmesi": 5449,
      "çalıştırılma": 5450,
      "zamlı": 5451,
      "hususların": 5452,
      "vekillerinin": 5453,
      "kurulmuş": 5454,
      "sakat": 5455,
      "görevlendirilmesi": 5456,
      "üçüncü": 5457,
      "üstünde": 5458,
      "imkansız": 5459,
      "verimsizlik": 5460,
      "sonlandırdığını": 5461,
      "çıkarıldığının": 5462,
      "oluştura": 5463,
      "sisteminin": 5464,
      "gelmemeniz": 5465,
      "yükümlülükleri": 5466,
      "Artık": 5467,
      "edindiği": 5468,
      "şahit": 5469,
      "kanıtlayamadığı": 5470,
      "sürülmüş": 5471,
      "havayolu": 5472,
      "326": 5473,
      "parası": 5474,
      "vanı": 5475,
      "zi": 5476,
      "zim": 5477,
      "2020": 5478,
      "kararlarına": 5479,
      "yerinin": 5480,
      "yapmadığını": 5481,
      "urt": 5482,
      "bitim": 5483,
      "...,": 5484,
      "bozması": 5485,
      "iddiasına": 5486,
      "gelmiştir": 5487,
      "ilmediğinden": 5488,
      "değerlendirmenin": 5489,
      "Yap": 5490,
      "bozulmasını": 5491,
      "istirahatlı": 5492,
      "fazl": 5493,
      "fazlası": 5494,
      "ulup": 5495,
      "yatırıl": 5496,
      "erdirilmesi": 5497,
      "kayıtlarının": 5498,
      "ihtimal": 5499,
      "obüs": 5500,
      "yansıtmadığı": 5501,
      "abileceğinin": 5502,
      "otobüs": 5503,
      "ilkelerine": 5504,
      "kaldırma": 5505,
      "hastanedeki": 5506,
      "psikolojik": 5507,
      "sergilediğini": 5508,
      "410": 5509,
      "Fıkra": 5510,
      "bilim": 5511,
      "gast": 5512,
      "ksiyonu": 5513,
      "mo": 5514,
      "vd": 5515,
      "yukar": 5516,
      "alen": 5517,
      "almakta": 5518,
      "işler": 5519,
      "olmasını": 5520,
      "olamayacağı": 5521,
      "verecek": 5522,
      "izah": 5523,
      "belgesi": 5524,
      "açılacak": 5525,
      "dayanmayan": 5526,
      "tarafında": 5527,
      "yapıldığına": 5528,
      "belirtme": 5529,
      "belirttiğini": 5530,
      "davranışta": 5531,
      "bildirmiştir": 5532,
      "verildiğinden": 5533,
      "içermesi": 5534,
      "yıllarda": 5535,
      "liliğinin": 5536,
      "mantık": 5537,
      "dikkat": 5538,
      "arttır": 5539,
      "17104": 5540,
      "Sözkonusu": 5541,
      "uygulanması": 5542,
      "çalıştırıldığını": 5543,
      "oluşturmayan": 5544,
      "vekilli": 5545,
      "araştırıl": 5546,
      "mıyorum": 5547,
      "açıkladığı": 5548,
      "koşullar": 5549,
      "aranmaktadır": 5550,
      "kayıtlarına": 5551,
      "bayramda": 5552,
      "firmalar": 5553,
      "fonksiyonu": 5554,
      "talebine": 5555,
      "yönetiminin": 5556,
      "böylelikle": 5557,
      "pozisyonu": 5558,
      "Birimi": 5559,
      "toplantıya": 5560,
      "kesme": 5561,
      "tesis": 5562,
      "sağlayan": 5563,
      "çeliş": 5564,
      "haizdir": 5565,
      "yanlıştır": 5566,
      "ihmaline": 5567,
      "uymamak": 5568,
      "sıkınt": 5569,
      "adalete": 5570,
      "toplantılara": 5571,
      "şüph": 5572,
      "aranmamaktadır": 5573,
      "enfeksiyonu": 5574,
      "yardımcı": 5575,
      "41025": 5576,
      "Fıkrası": 5577,
      "bilimsel": 5578,
      "gastr": 5579,
      "yukarıdaki": 5580,
      "aleniyet": 5581,
      "mantıksal": 5582,
      ".'": 5583,
      "78": 5584,
      "85": 5585,
      "güm": 5586,
      "syon": 5587,
      "ırı": 5588,
      "ıyordu": 5589,
      "argüm": 5590,
      "ılmasının": 5591,
      "saha": 5592,
      "aşılamaz": 5593,
      "aşırı": 5594,
      "aşılmasının": 5595,
      "fesihlerdir": 5596,
      "çalıştık": 5597,
      "sözkonusu": 5598,
      "öngörmekte": 5599,
      "ami": 5600,
      "günün": 5601,
      "olumlu": 5602,
      "uyarılmasına": 5603,
      "davranışlarını": 5604,
      "sebeplerin": 5605,
      "verildiğinde": 5606,
      "elveriş": 5607,
      "alanmış": 5608,
      "azami": 5609,
      "kullanıldığını": 5610,
      "sendikalara": 5611,
      "belirlenmelidir": 5612,
      "başlatılmaz": 5613,
      "sorunu": 5614,
      "izinle": 5615,
      "miktarlarda": 5616,
      "bitiş": 5617,
      "kapsamındaki": 5618,
      "olgular": 5619,
      "167": 5620,
      "çıkmaktadır": 5621,
      "niteliğindeki": 5622,
      "etmişlerdir": 5623,
      "imzalanan": 5624,
      "feshedilmediğini": 5625,
      "çıkartıldığını": 5626,
      "faaliyeti": 5627,
      "olojileri": 5628,
      "1992": 5629,
      "reddettiği": 5630,
      "etmeyeceği": 5631,
      "organizasyonunda": 5632,
      "bulunduğuna": 5633,
      "sergilemesi": 5634,
      "karşılaş": 5635,
      "istisnası": 5636,
      "elverişli": 5637,
      "220": 5638,
      "jit": 5639,
      "ura": 5640,
      "zca": 5641,
      "ensip": 5642,
      "olmas": 5643,
      "diz": 5644,
      "rapora": 5645,
      "fesihlerin": 5646,
      "alışveriş": 5647,
      "belirtilmesi": 5648,
      "Davacıya": 5649,
      "konunun": 5650,
      "yazıl": 5651,
      "liliğe": 5652,
      "ihbarnamesinde": 5653,
      "nızca": 5654,
      "artesi": 5655,
      "yorumlanmıştır": 5656,
      "teki": 5657,
      "prensip": 5658,
      "güvenliği": 5659,
      "dayandırılmıştır": 5660,
      "saatlerinin": 5661,
      "olunması": 5662,
      "açıklayarak": 5663,
      "sorumluluğa": 5664,
      "Maddede": 5665,
      "gittiği": 5666,
      "Hastanesinde": 5667,
      "mağazanın": 5668,
      "uğrattığını": 5669,
      "dosyalardan": 5670,
      "duruşmada": 5671,
      "olgusunu": 5672,
      "kamyon": 5673,
      "amaçla": 5674,
      "yalnızca": 5675,
      "çizelgesinde": 5676,
      "ölçülülük": 5677,
      "olmasın": 5678,
      "prensiplere": 5679,
      "çöz": 5680,
      "delen": 5681,
      "irdelen": 5682,
      "ihai": 5683,
      "İşe": 5684,
      "soruştur": 5685,
      "Yukarıdaki": 5686,
      "Feshe": 5687,
      "fiilen": 5688,
      "kısmı": 5689,
      "amirlerinden": 5690,
      "imzalı": 5691,
      "görüşünde": 5692,
      "maaşının": 5693,
      "unsurları": 5694,
      "niteliktedir": 5695,
      "yaratması": 5696,
      "İşletme": 5697,
      "suistimal": 5698,
      "Hip": 5699,
      "Kul": 5700,
      "Nak": 5701,
      "dolan": 5702,
      "eh": 5703,
      "fat": 5704,
      "haciz": 5705,
      "idi": 5706,
      "kum": 5707,
      "kist": 5708,
      "mer": 5709,
      "odr": 5710,
      "uların": 5711,
      "va": 5712,
      "yü": 5713,
      "üme": 5714,
      "şit": 5715,
      "artan": 5716,
      "erken": 5717,
      "alacağının": 5718,
      "etmen": 5719,
      "alıyla": 5720,
      "verdikten": 5721,
      "verilerle": 5722,
      "ledikten": 5723,
      "denilerek": 5724,
      "ilmemiştir": 5725,
      "207": 5726,
      "ihmali": 5727,
      "gerekiyordu": 5728,
      "tec": 5729,
      "onşit": 5730,
      "iliği": 5731,
      "yapar": 5732,
      "işvereninin": 5733,
      "haklarında": 5734,
      "İşleri": 5735,
      "sayısında": 5736,
      "kit": 5737,
      "tipleri": 5738,
      "göreceğinin": 5739,
      "edileri": 5740,
      "asli": 5741,
      "bulunab": 5742,
      "dere": 5743,
      "taraflarının": 5744,
      "yete": 5745,
      "uymadığını": 5746,
      "giderilmesi": 5747,
      "yargılamada": 5748,
      "bozan": 5749,
      "verildiğinin": 5750,
      "içerdiği": 5751,
      "içersinde": 5752,
      "kanalıyla": 5753,
      "azab": 5754,
      "devamsızlığından": 5755,
      "nedenlerin": 5756,
      "talepleri": 5757,
      "başlama": 5758,
      "kullanımı": 5759,
      "şirketler": 5760,
      "bıraktığını": 5761,
      "ispatlanamamıştır": 5762,
      "rahatsızlanması": 5763,
      "kapsayan": 5764,
      "herkes": 5765,
      "aradıklarını": 5766,
      "artmasına": 5767,
      "görülmediği": 5768,
      "etkiledi": 5769,
      "bakıl": 5770,
      "değişiyordu": 5771,
      "öngörüyü": 5772,
      "istenmiştir": 5773,
      "istenilen": 5774,
      "siyete": 5775,
      "bulunmamış": 5776,
      "uygulanmış": 5777,
      "uygulanmakta": 5778,
      "alarm": 5779,
      "Çalışmalar": 5780,
      "doğrulması": 5781,
      "bölüme": 5782,
      "289": 5783,
      "bundan": 5784,
      "işlemleri": 5785,
      "istiyordu": 5786,
      "ihtara": 5787,
      "bölümünün": 5788,
      "tutanağın": 5789,
      "faydalanamadığı": 5790,
      "birimlerden": 5791,
      "esaslı": 5792,
      "operasyonun": 5793,
      "üretimler": 5794,
      "etkilendiği": 5795,
      "İŞİNE": 5796,
      "tutanakta": 5797,
      "boruların": 5798,
      "mevcutta": 5799,
      "mevcuttu": 5800,
      "ispatlaması": 5801,
      "ifadeleri": 5802,
      "düşüklüğüne": 5803,
      "örtüş": 5804,
      "genellikle": 5805,
      "alınamadığından": 5806,
      "yoktu": 5807,
      "alacakların": 5808,
      "nezle": 5809,
      "sonlandırıldığının": 5810,
      "taşıyan": 5811,
      "bana": 5812,
      "karşılığında": 5813,
      "teknikeri": 5814,
      "organlarınca": 5815,
      "şoförle": 5816,
      "kazadan": 5817,
      "ispatlayamamıştır": 5818,
      "malzemelerin": 5819,
      "malzemeyi": 5820,
      "ilkesidir": 5821,
      "fiziki": 5822,
      "ilkelerden": 5823,
      "belirtilmişse": 5824,
      "yüklemeci": 5825,
      "yaptıklarını": 5826,
      "3248": 5827,
      "komitesi": 5828,
      "temsilcilerine": 5829,
      "Hizm": 5830,
      "etkileme": 5831,
      "etkilemesi": 5832,
      "öğrendiklerini": 5833,
      "Bayramının": 5834,
      "Sulamaya": 5835,
      "düzenlemiştir": 5836,
      "kapatarak": 5837,
      "celse": 5838,
      "yapılmadı": 5839,
      "koliden": 5840,
      "itibarıyla": 5841,
      "edemeyeceğinin": 5842,
      "ödenecek": 5843,
      "alınamayacağını": 5844,
      "7448": 5845,
      "sıkıntı": 5846,
      "kılmalıdır": 5847,
      "üretilen": 5848,
      "takibe": 5849,
      "45005023": 5850,
      "45005024": 5851,
      "29752": 5852,
      "yöntemince": 5853,
      "çıkarılmasıyla": 5854,
      "düzeyde": 5855,
      "anksiyete": 5856,
      "zorunluluğun": 5857,
      "Görev": 5858,
      "omuzunda": 5859,
      "sulamaya": 5860,
      "kararımızda": 5861,
      "seviyesi": 5862,
      "ödül": 5863,
      "tablosu": 5864,
      "imzalatıldığını": 5865,
      "Hipodr": 5866,
      "ehliyet": 5867,
      "fatura": 5868,
      "bulunabilme": 5869,
      "azabı": 5870,
      "herkeste": 5871,
      "BMM": 5872,
      "TBMM": 5873,
      "Yet": 5874,
      "eleştir": 5875,
      "go": 5876,
      "gen": 5877,
      "gor": 5878,
      "phem": 5879,
      "zih": 5880,
      "üd": 5881,
      "Şöyle": 5882,
      "kate": 5883,
      "kabili": 5884,
      "edili": 5885,
      "feshedili": 5886,
      "verenden": 5887,
      "aydın": 5888,
      "görmesi": 5889,
      "çalışıyor": 5890,
      "müphem": 5891,
      "uyor": 5892,
      "eceğini": 5893,
      "yola": 5894,
      "okul": 5895,
      "kullanılan": 5896,
      "çalışandan": 5897,
      "çıkarak": 5898,
      "artması": 5899,
      "istemi": 5900,
      "verimliliği": 5901,
      "atımızın": 5902,
      "tanıklığı": 5903,
      "istirahatte": 5904,
      "150": 5905,
      "ölçülere": 5906,
      "Sayın": 5907,
      "bunları": 5908,
      "tedavisi": 5909,
      "tanıdığı": 5910,
      "erdirilemez": 5911,
      "sırasındaki": 5912,
      "sistemine": 5913,
      "girişmiş": 5914,
      "verilecektir": 5915,
      "problemleri": 5916,
      "kanaatimizce": 5917,
      "tartışmaya": 5918,
      "beklenemeyecektir": 5919,
      "çalışılacağına": 5920,
      "mevzuatımızın": 5921,
      "taahhüd": 5922,
      "bilirkişiler": 5923,
      "standart": 5924,
      "tanımına": 5925,
      "bağdaşmadığı": 5926,
      "Hükmünden": 5927,
      "zihinsel": 5928,
      "kategor": 5929,
      "kabiliyeti": 5930,
      "feshediliyor": 5931,
      "(.)": 5932,
      "418": 5933,
      "86": 5934,
      ";,": 5935,
      "Gıda": 5936,
      "Te": 5937,
      "can": 5938,
      "cik": 5939,
      "cret": 5940,
      "dile": 5941,
      "gür": 5942,
      "janın": 5943,
      "jik": 5944,
      "jesinde": 5945,
      "kiler": 5946,
      "md": 5947,
      "nük": 5948,
      "nihai": 5949,
      "pes": 5950,
      "sene": 5951,
      "tör": 5952,
      "tümüyle": 5953,
      "uki": 5954,
      "Ücret": 5955,
      "çağır": 5956,
      "şer": 5957,
      "arıt": 5958,
      "erjik": 5959,
      "deter": 5960,
      "alerjik": 5961,
      "mamış": 5962,
      "mamı": 5963,
      "daveti": 5964,
      "aktar": 5965,
      "ekkere": 5966,
      "olmalıdır": 5967,
      "esiyle": 5968,
      "gecik": 5969,
      "ilmemesine": 5970,
      "kararla": 5971,
      "feshedip": 5972,
      "feshetmesine": 5973,
      "birleştirme": 5974,
      "tey": 5975,
      "teye": 5976,
      "tebel": 5977,
      "tarihinin": 5978,
      "ünmüş": 5979,
      "alınmasından": 5980,
      "alındıktan": 5981,
      "yapılıp": 5982,
      "duğuna": 5983,
      "yecek": 5984,
      "özgür": 5985,
      "kiye": 5986,
      "açılması": 5987,
      "açıldığı": 5988,
      "içki": 5989,
      "deri": 5990,
      "tarafı": 5991,
      "tarafları": 5992,
      "sürelere": 5993,
      "müdahil": 5994,
      "yapılmaksızın": 5995,
      "açıklanmamış": 5996,
      "ikr": 5997,
      "gerekçelendir": 5998,
      "vurgulan": 5999,
      "başvurulması": 6000,
      "içermektedir": 6001,
      "nakden": 6002,
      "kaynaklı": 6003,
      "işverenindir": 6004,
      "başlamak": 6005,
      "sağılık": 6006,
      "şirketini": 6007,
      "tiğinin": 6008,
      "getiren": 6009,
      "getirmeksizin": 6010,
      "uçağın": 6011,
      "yüksel": 6012,
      "yükleyen": 6013,
      "almamasından": 6014,
      "düzeye": 6015,
      "düşen": 6016,
      "düşmesine": 6017,
      "belirlenecek": 6018,
      "belirlenmekle": 6019,
      "asılsız": 6020,
      "kurma": 6021,
      "kurduğunu": 6022,
      "beyanından": 6023,
      "uygundur": 6024,
      "başlatıldığını": 6025,
      "ilmediğini": 6026,
      "aradan": 6027,
      "göstermektedir": 6028,
      "zorluğu": 6029,
      "tespite": 6030,
      "tanıklık": 6031,
      "tanıklarda": 6032,
      "iadeden": 6033,
      "düzenlendiği": 6034,
      "edileceği": 6035,
      "katıldığı": 6036,
      "aralıklarında": 6037,
      "bing": 6038,
      "gerektirecek": 6039,
      "önemlisi": 6040,
      "bulunmadan": 6041,
      "normalde": 6042,
      "kanıtlanamamıştır": 6043,
      "belgeleri": 6044,
      "bölünmüş": 6045,
      "çalıştırmakta": 6046,
      "gözetim": 6047,
      "saatlerine": 6048,
      "işlemler": 6049,
      "yatırana": 6050,
      "ilgilileri": 6051,
      "dinlenmiştir": 6052,
      "dinlenilmemesine": 6053,
      "projesinde": 6054,
      "birime": 6055,
      "mazeretli": 6056,
      "dilekçenin": 6057,
      "girilmesi": 6058,
      "olunmasını": 6059,
      "çıkmış": 6060,
      "kurallara": 6061,
      "Hukuki": 6062,
      "Hakkı": 6063,
      "davalıların": 6064,
      "yatkın": 6065,
      "görevlendirilmesini": 6066,
      "ettirmeye": 6067,
      "yokluğundan": 6068,
      "ulaşmaması": 6069,
      "düşündüğüm": 6070,
      "uygulamasında": 6071,
      "....'": 6072,
      "işleyişinin": 6073,
      "incelemede": 6074,
      "almaktan": 6075,
      "sektör": 6076,
      "sekteye": 6077,
      "ihtimamı": 6078,
      "söylediği": 6079,
      "ambarda": 6080,
      "ambarına": 6081,
      "Maddesine": 6082,
      "feshedilmişse": 6083,
      "sorumluluklarını": 6084,
      "toplantısına": 6085,
      "nazaran": 6086,
      "Türkiye": 6087,
      "fabrikası": 6088,
      "değiştirme": 6089,
      "değiştirmesinin": 6090,
      "niteliklerden": 6091,
      "taşeronu": 6092,
      "içtihadı": 6093,
      "davalarının": 6094,
      "örgütlenmesi": 6095,
      "talimatına": 6096,
      "şartıyla": 6097,
      "İçki": 6098,
      "İçkiler": 6099,
      "beklenenden": 6100,
      "Aralık": 6101,
      "önlemin": 6102,
      "zaten": 6103,
      "katılmıyorum": 6104,
      "belirtilmemesi": 6105,
      "belirtilmemiş": 6106,
      "çalıştırılmasının": 6107,
      "edinilmiş": 6108,
      "iradesi": 6109,
      "sıklıkta": 6110,
      "yaptırımının": 6111,
      "olgusunun": 6112,
      "Böylece": 6113,
      "yükümlülüğünden": 6114,
      "tanıklardır": 6115,
      "katılmadığını": 6116,
      "soktuğu": 6117,
      "ülkenin": 6118,
      "sıfatına": 6119,
      "şansının": 6120,
      "kabinde": 6121,
      "saygısızlık": 6122,
      "yöneltmediği": 6123,
      "düşüncesine": 6124,
      "işverenlerce": 6125,
      "Satıcı": 6126,
      "denetlen": 6127,
      "engellenmesi": 6128,
      "tamamlanmadan": 6129,
      "iptaline": 6130,
      "İçtihadı": 6131,
      "Operasyonlar": 6132,
      "Yardımcısı": 6133,
      "kavramı": 6134,
      "Dinlenilme": 6135,
      "başlangıçta": 6136,
      "epikr": 6137,
      "müzekkere": 6138,
      "yoğunlaşmasının": 6139,
      "kolayca": 6140,
      "Ürün": 6141,
      "belirtilmekle": 6142,
      "Telefon": 6143,
      "dilediği": 6144,
      "nüks": 6145,
      "arıtma": 6146,
      "deterjanın": 6147,
      "davetiye": 6148,
      "aktardığı": 6149,
      "tebellüğ": 6150,
      "müdahiller": 6151,
      "gerekçelendirilmesini": 6152,
      "vurgulanmıştır": 6153,
      "düşündüğümden": 6154,
      ",-": 6155,
      "Ben": 6156,
      "dine": 6157,
      "fin": 6158,
      "kılara": 6159,
      "nö": 6160,
      "sü": 6161,
      "uyan": 6162,
      "almakla": 6163,
      "lideri": 6164,
      "lerim": 6165,
      "ilebileceği": 6166,
      "ılımı": 6167,
      "çalışabileceği": 6168,
      "dayanmış": 6169,
      "edileme": 6170,
      "olmama": 6171,
      "gerekçeye": 6172,
      "tanzim": 6173,
      "tazminatlı": 6174,
      "getiremediği": 6175,
      "sendikalar": 6176,
      "görevlerde": 6177,
      "ispatlandığı": 6178,
      "kurulan": 6179,
      "değerlendirilme": 6180,
      "verimine": 6181,
      "verimlilik": 6182,
      "sorunun": 6183,
      "istirahatinin": 6184,
      "katma": 6185,
      "katıldığını": 6186,
      "bendine": 6187,
      "270": 6188,
      "düşüklüğünün": 6189,
      "hususlarının": 6190,
      "dışına": 6191,
      "çıktığı": 6192,
      "hastalıkları": 6193,
      "doğuracak": 6194,
      "geçiren": 6195,
      "yürütümü": 6196,
      "dönemdeki": 6197,
      "baskılara": 6198,
      "kurumsal": 6199,
      "çıkarttığı": 6200,
      "ortamların": 6201,
      "yaptırıldığı": 6202,
      "sistemi": 6203,
      "içeriklerinden": 6204,
      "teklifi": 6205,
      "düzenlemesi": 6206,
      "düzeltilerek": 6207,
      "saati": 6208,
      "masrafları": 6209,
      "kaydıyla": 6210,
      "edilememiş": 6211,
      "opati": 6212,
      "nöbet": 6213,
      "649": 6214,
      "Ara": 6215,
      "Gün": 6216,
      "hız": 6217,
      "kok": 6218,
      "nden": 6219,
      "nere": 6220,
      "rem": 6221,
      "yınca": 6222,
      "çay": 6223,
      "ıma": 6224,
      "unvanı": 6225,
      "verile": 6226,
      "feshetmesi": 6227,
      "tasyon": 6228,
      "iliğini": 6229,
      "tarihlerini": 6230,
      "hasebe": 6231,
      "alınmaksızın": 6232,
      "ışı": 6233,
      "sayar": 6234,
      "lenmeye": 6235,
      "açılmadığı": 6236,
      "öngördüğünü": 6237,
      "olmamak": 6238,
      "temiz": 6239,
      "edilmemiş": 6240,
      "kalacağından": 6241,
      "yapılamaz": 6242,
      "yapılmalı": 6243,
      "kırı": 6244,
      "ılamayacağını": 6245,
      "davranışından": 6246,
      "davranışların": 6247,
      "harrem": 6248,
      "konuyu": 6249,
      "yazılar": 6250,
      "talepte": 6251,
      "şirketine": 6252,
      "görevl": 6253,
      "olayının": 6254,
      "çalışanının": 6255,
      "ihbarı": 6256,
      "hakkından": 6257,
      "muvaz": 6258,
      "muhasebe": 6259,
      "sorulduğu": 6260,
      "güvence": 6261,
      "görmediğini": 6262,
      "sunduğunu": 6263,
      "uygulanmaması": 6264,
      "alarda": 6265,
      "bunlara": 6266,
      "bilgisayar": 6267,
      "vermektedir": 6268,
      "mazeretinin": 6269,
      "sorunsuz": 6270,
      "değerlendirmede": 6271,
      "etkilendiğini": 6272,
      "bulunulmadığı": 6273,
      "ilecektir": 6274,
      "ayrılan": 6275,
      "ulaşım": 6276,
      "görüşü": 6277,
      "yöneticiler": 6278,
      "Muharrem": 6279,
      "vardiyalı": 6280,
      "kanıtlanmamıştır": 6281,
      "müşterinin": 6282,
      "kaçınmak": 6283,
      "vardiyasına": 6284,
      "uğraması": 6285,
      "savunmalarının": 6286,
      "koruma": 6287,
      "sürecinde": 6288,
      "mağaza": 6289,
      "yetkilileri": 6290,
      "servisi": 6291,
      "vazgeç": 6292,
      "hesabınıza": 6293,
      "huzursuzluğa": 6294,
      "kanıtlayamamıştır": 6295,
      "koval": 6296,
      "kovalanan": 6297,
      "ihlalidir": 6298,
      "sokacak": 6299,
      "ılırsa": 6300,
      "kılıf": 6301,
      "zorlayacak": 6302,
      "bahanelerle": 6303,
      "Araş": 6304,
      "hızlı": 6305,
      "kırıcı": 6306,
      "34": 6307,
      "Kab": 6308,
      "Müş": 6309,
      "abi": 6310,
      "kılan": 6311,
      "teri": 6312,
      "işlerinde": 6313,
      "madığına": 6314,
      "etin": 6315,
      "etmeyen": 6316,
      "belik": 6317,
      "gebelik": 6318,
      "gereklidir": 6319,
      "umaları": 6320,
      "alınmalarının": 6321,
      "yapamayacağı": 6322,
      "mesnet": 6323,
      "çalışabileceğinin": 6324,
      "dayanması": 6325,
      "amac": 6326,
      "sızlığın": 6327,
      "temeli": 6328,
      "yapılamadığı": 6329,
      "haric": 6330,
      "üldüğü": 6331,
      "yolunu": 6332,
      "kanunu": 6333,
      "başlatama": 6334,
      "mahkemeye": 6335,
      "belirlendiğini": 6336,
      "beyanlarında": 6337,
      "arada": 6338,
      "emeyeceğini": 6339,
      "değerlendirmeye": 6340,
      "sendikadaki": 6341,
      "ılmadığını": 6342,
      "fıkrada": 6343,
      "tutulama": 6344,
      "yetersizdir": 6345,
      "Sözü": 6346,
      "bildirimindeki": 6347,
      "uzat": 6348,
      "dönemler": 6349,
      "oluşturan": 6350,
      "vekiline": 6351,
      "bölümlerde": 6352,
      "vermeksizin": 6353,
      "araştırılma": 6354,
      "girmeleri": 6355,
      "girmemeleri": 6356,
      "hastalıklarından": 6357,
      "programının": 6358,
      "koşulların": 6359,
      "cevabi": 6360,
      "oluşa": 6361,
      "görevlendirildiğini": 6362,
      "sorumluluğ": 6363,
      "aksatacağı": 6364,
      "Alt": 6365,
      "bilirkişiden": 6366,
      "tekrarlanan": 6367,
      "kredi": 6368,
      "korumaları": 6369,
      "imzaladığı": 6370,
      "havale": 6371,
      "kendini": 6372,
      "şahıs": 6373,
      "duyuru": 6374,
      "olasılı": 6375,
      "hattını": 6376,
      "çağrıldığını": 6377,
      "taktirde": 6378,
      "listesinde": 6379,
      "argümanı": 6380,
      "sahada": 6381,
      "Kabin": 6382,
      "Müşteri": 6383,
      "mesnetsiz": 6384,
      "haricinde": 6385,
      "başlatamama": 6386,
      "tutulamayacağı": 6387,
      "417": 6388,
      "51": 6389,
      "54": 6390,
      "535": 6391,
      "550": 6392,
      "Baz": 6393,
      "Meden": 6394,
      "Su": 6395,
      "abildiği": 6396,
      "mor": 6397,
      "mün": 6398,
      "tüs": 6399,
      "yim": 6400,
      "çatı": 6401,
      "ğiz": 6402,
      "İz": 6403,
      "İdar": 6404,
      "şmasına": 6405,
      "”,": 6406,
      "inşaat": 6407,
      "arac": 6408,
      "aret": 6409,
      "dedi": 6410,
      "alizasyon": 6411,
      "olmanın": 6412,
      "emli": 6413,
      "vermediğinin": 6414,
      "lef": 6415,
      "neler": 6416,
      "sayabilir": 6417,
      "denilemez": 6418,
      "tabilir": 6419,
      "nedeninden": 6420,
      "onarım": 6421,
      "alındığına": 6422,
      "ayi": 6423,
      "ayını": 6424,
      "yapım": 6425,
      "iştirak": 6426,
      "görmektedir": 6427,
      "işçisini": 6428,
      "işçisinin": 6429,
      "sürüp": 6430,
      "İşte": 6431,
      "İşyerine": 6432,
      "sözü": 6433,
      "tiye": 6434,
      "görebilir": 6435,
      "dayanabilir": 6436,
      "Kanaa": 6437,
      "Kanalizasyon": 6438,
      "olmayacağı": 6439,
      "devr": 6440,
      "uyardık": 6441,
      "emelidir": 6442,
      "2536": 6443,
      "konulması": 6444,
      "konulduğu": 6445,
      "ikna": 6446,
      "ödenip": 6447,
      "başvurarak": 6448,
      "ellef": 6449,
      "azaldığı": 6450,
      "anlaşılabildiği": 6451,
      "tazminatta": 6452,
      "verilmesine5": 6453,
      "ifası": 6454,
      "dırılmış": 6455,
      "düşüne": 6456,
      "niyeti": 6457,
      "savunmaya": 6458,
      "ispatsız": 6459,
      "beyanına": 6460,
      "emeyeceğinden": 6461,
      "çıkarınca": 6462,
      "çıkartabilir": 6463,
      "edebileceği": 6464,
      "edemez": 6465,
      "değerlendirmek": 6466,
      "değerlendirildiğini": 6467,
      "göstermiş": 6468,
      "göstermez": 6469,
      "sendikasından": 6470,
      "zorlama": 6471,
      "hükümlere": 6472,
      "maddeye": 6473,
      "işçilerinin": 6474,
      "işçilerinden": 6475,
      "bakmadan": 6476,
      "tanıklarınca": 6477,
      "şartlara": 6478,
      "15250": 6479,
      "statüs": 6480,
      "istenilmesine": 6481,
      "istenildiğinde": 6482,
      "metot": 6483,
      "gerektirmektedir": 6484,
      "gerektirmez": 6485,
      "uygulandığını": 6486,
      "daireleri": 6487,
      "139": 6488,
      "olguların": 6489,
      "eylemlerine": 6490,
      "araştırılmaz": 6491,
      "vakıayı": 6492,
      "birimdeki": 6493,
      "açıklamaktadır": 6494,
      "değerlendirmelere": 6495,
      "kanunlara": 6496,
      "eşitliğe": 6497,
      "etmektir": 6498,
      "timizce": 6499,
      "alacaklarından": 6500,
      "hükmedilmemelidir": 6501,
      "fıtık": 6502,
      "gitmediği": 6503,
      "kurumunun": 6504,
      "taşıyabilir": 6505,
      "değerlendirilemez": 6506,
      "niyetle": 6507,
      "niyettir": 6508,
      "bankaca": 6509,
      "aykırılığı": 6510,
      "yaşanan": 6511,
      "bilgiler": 6512,
      "verilmediği": 6513,
      "yanılgısını": 6514,
      "çıkarmamış": 6515,
      "ederse": 6516,
      "hâkimin": 6517,
      "yürütümünde": 6518,
      "kavga": 6519,
      "ayrımcılığı": 6520,
      "İnandırıcı": 6521,
      "ahhüt": 6522,
      "vermeyecek": 6523,
      "yüklenemeyeceğinden": 6524,
      "incelemesi": 6525,
      "551": 6526,
      "uzmanı": 6527,
      "çıkarılanlardan": 6528,
      "tavrı": 6529,
      "organizasyonunun": 6530,
      "parçalar": 6531,
      "kuşkuya": 6532,
      "Önemli": 6533,
      "düzenlemeler": 6534,
      "koyduğunda": 6535,
      "zorlukla": 6536,
      "kullanılmasını": 6537,
      "gösterenleri": 6538,
      "yaşadıkları": 6539,
      "şahsın": 6540,
      "ibaresine": 6541,
      "imkânını": 6542,
      "şantiye": 6543,
      "tırmamak": 6544,
      "şartlardaki": 6545,
      "aramamakta": 6546,
      "korumaz": 6547,
      "zorlaştırmamak": 6548,
      "cezalandırılmış": 6549,
      "9511": 6550,
      "kayded": 6551,
      "uygulamalarına": 6552,
      "keyfiliğin": 6553,
      "lüzumu": 6554,
      "sataşma": 6555,
      "Aksine": 6556,
      "mükellef": 6557,
      "alakalı": 6558,
      "davacıların": 6559,
      "şartnamesi": 6560,
      "müteahhit": 6561,
      "güçlü": 6562,
      "Taahhüt": 6563,
      "dikkatli": 6564,
      "şüpheden": 6565,
      "gastrit": 6566,
      "karşılaşacağını": 6567,
      "5358": 6568,
      "Bazen": 6569,
      "Medeni": 6570,
      "moral": 6571,
      "çatışmasına": 6572,
      "İdaresi": 6573,
      "aracılığı": 6574,
      "nelerdi": 6575,
      "Kanaatimizce": 6576,
      "konulmasıdır": 6577,
      "düşünebilir": 6578,
      "edemezse": 6579,
      "metotlarına": 6580,
      "Kanaatimizceİş": 6581,
      "380": 6582,
      "935": 6583,
      "Bak": 6584,
      "Dis": 6585,
      "Hal": 6586,
      "Kı": 6587,
      "hen": 6588,
      "pu": 6589,
      "para": 6590,
      "anbul": 6591,
      "akti": 6592,
      "olunda": 6593,
      "olacak": 6594,
      "vermeyen": 6595,
      "gerekleri": 6596,
      "üniyet": 6597,
      "aylarında": 6598,
      "işverenlerin": 6599,
      "belirtir": 6600,
      "asgari": 6601,
      "durumlar": 6602,
      "ılamama": 6603,
      "harcı": 6604,
      "iktisadi": 6605,
      "değin": 6606,
      "başlamaması": 6607,
      "İstanbul": 6608,
      "düşecektir": 6609,
      "belirlenmesinin": 6610,
      "belirlenmektedir": 6611,
      "belirleneceği": 6612,
      "devamsızlıktan": 6613,
      "Dosyaya": 6614,
      "iplin": 6615,
      "beyanlarının": 6616,
      "beyanlarda": 6617,
      "başlatılamama": 6618,
      "sayılma": 6619,
      "şartının": 6620,
      "edilebileceğini": 6621,
      "işiyle": 6622,
      "kazanması": 6623,
      "2777": 6624,
      "yapmadığına": 6625,
      "olunca": 6626,
      "kötüniyet": 6627,
      "teknolojileri": 6628,
      "sınırdan": 6629,
      "4422": 6630,
      "ödemesine": 6631,
      "malzemeleri": 6632,
      "bahsedilemez": 6633,
      "emeklilik": 6634,
      "emekliliğe": 6635,
      "mahiyette": 6636,
      "işletmede": 6637,
      "7819": 6638,
      "Disiplin": 6639,
      "Kıdem": 6640,
      "henüz": 6641,
      "27773": 6642,
      "kötüniyetli": 6643,
      "),": 6644,
      "Mes": 6645,
      "gın": 6646,
      "sile": 6647,
      "tiler": 6648,
      "çif": 6649,
      "araç": 6650,
      "olacağı": 6651,
      "etti": 6652,
      "kağı": 6653,
      "orman": 6654,
      "rafı": 6655,
      "Daha": 6656,
      "masrafı": 6657,
      "bulunduklarını": 6658,
      "sayılır": 6659,
      "savunmanız": 6660,
      "belirtmesi": 6661,
      "kısta": 6662,
      "işkolunda": 6663,
      "şirketlerin": 6664,
      "şirketlere": 6665,
      "belirlenir": 6666,
      "raporlarıyla": 6667,
      "çalıştırılmayan": 6668,
      "bronşit": 6669,
      "silsile": 6670,
      "luğuyla": 6671,
      "yararlanma": 6672,
      "disiplinsiz": 6673,
      "öğretmen": 6674,
      "boyut": 6675,
      "aktini": 6676,
      "basına": 6677,
      "bilgilerinin": 6678,
      "mağazaya": 6679,
      "ödevleri": 6680,
      "eklentiler": 6681,
      "organizasyonu": 6682,
      "sigara": 6683,
      "oyçokluğuyla": 6684,
      "tutulmuş": 6685,
      "mevzuat": 6686,
      "gidememesi": 6687,
      "oluşturulmadan": 6688,
      "Meslek": 6689,
      "çift": 6690,
      "araçlar": 6691,
      "79": 6692,
      "Bank": 6693,
      "til": 6694,
      "uh": 6695,
      "yın": 6696,
      "işlerini": 6697,
      "etmeniz": 6698,
      "ihtil": 6699,
      "görmemeleri": 6700,
      "bildirmeksizin": 6701,
      "yolunda": 6702,
      "devamsızlıkların": 6703,
      "geriye": 6704,
      "takv": 6705,
      "girdiği": 6706,
      "hastalığından": 6707,
      "oluşan": 6708,
      "genelde": 6709,
      "çıkarılmasının": 6710,
      "prosedürüne": 6711,
      "kendilerine": 6712,
      "kamer": 6713,
      "Bununla": 6714,
      "külfetini": 6715,
      "olduğumuz": 6716,
      "Bankacılık": 6717,
      "ihtilaf": 6718,
      "\".": 6719,
      "65": 6720,
      "629": 6721,
      ";“": 6722,
      "Faz": 6723,
      "Ka": 6724,
      "Lim": 6725,
      "Ocak": 6726,
      "bö": 6727,
      "cih": 6728,
      "iver": 6729,
      "memeye": 6730,
      "nik": 6731,
      "nasında": 6732,
      "nitekim": 6733,
      "rik": 6734,
      "rüb": 6735,
      "sesinde": 6736,
      "zileri": 6737,
      "çısı": 6738,
      "İk": 6739,
      "şif": 6740,
      "ıntılı": 6741,
      "aracı": 6742,
      "aldırıl": 6743,
      "işgörme": 6744,
      "esnasında": 6745,
      "acele": 6746,
      "ılmıştır": 6747,
      "yaj": 6748,
      "yayın": 6749,
      "disk": 6750,
      "emr": 6751,
      "kas": 6752,
      "oranla": 6753,
      "denildiği": 6754,
      "tartı": 6755,
      "ilmesinde": 6756,
      "ilmektedir": 6757,
      "2003": 6758,
      "landıktan": 6759,
      "onama": 6760,
      "iliğinden": 6761,
      "üniver": 6762,
      "had": 6763,
      "ayları": 6764,
      "sıklığı": 6765,
      "sıklaş": 6766,
      "sürdüğünü": 6767,
      "açarak": 6768,
      "sözleşmesinden": 6769,
      "başında": 6770,
      "atçısı": 6771,
      "bulunacaktır": 6772,
      "günden": 6773,
      "savunmalara": 6774,
      "hatanın": 6775,
      "mümes": 6776,
      "yapılmasının": 6777,
      "harca": 6778,
      "Davacıdan": 6779,
      "konuş": 6780,
      "konmamıştır": 6781,
      "bildirmiş": 6782,
      "gerekçelerle": 6783,
      "yeterince": 6784,
      "...“": 6785,
      "verilemeyeceği": 6786,
      "usül": 6787,
      "alanında": 6788,
      "şılması": 6789,
      "anlaşıldığına": 6790,
      "iddianın": 6791,
      "çalışmamasının": 6792,
      "tanımı": 6793,
      "maliyet": 6794,
      "sağlan": 6795,
      "sağlandığını": 6796,
      "ifesi": 6797,
      "kullanım": 6798,
      "kullanmalarının": 6799,
      "oysa": 6800,
      "gelmeyerek": 6801,
      "gelmemeye": 6802,
      "tiğinden": 6803,
      "yeterliliği": 6804,
      "getirilerek": 6805,
      "yoracak": 6806,
      "olaydan": 6807,
      "olaylarla": 6808,
      "düzgün": 6809,
      "verildikten": 6810,
      "düşme": 6811,
      "düşüm": 6812,
      "ilkesini": 6813,
      "değerlendirildiği": 6814,
      "gösteremediğini": 6815,
      "lamanın": 6816,
      "nasıldı": 6817,
      "görülmediğinden": 6818,
      "varılan": 6819,
      "performansında": 6820,
      "izinlerinin": 6821,
      "eyleme": 6822,
      "istirahatlerinin": 6823,
      "şartını": 6824,
      "delilinin": 6825,
      "yetersizliğine": 6826,
      "feshiyle": 6827,
      "edilmeyen": 6828,
      "istenilmiş": 6829,
      "istenmeyen": 6830,
      "site": 6831,
      "feshedileceğini": 6832,
      "355": 6833,
      "Anayasanın": 6834,
      "döneminden": 6835,
      "tarihide": 6836,
      "bittikten": 6837,
      "memurluğu": 6838,
      "oluşturduğundan": 6839,
      "istifalar": 6840,
      "brek": 6841,
      "faydalan": 6842,
      "eylemlerin": 6843,
      "Tarifesi": 6844,
      "haftada": 6845,
      "tatilinin": 6846,
      "sonuçlara": 6847,
      "apta": 6848,
      "tanığın": 6849,
      "adr": 6850,
      "hastalığın": 6851,
      "tercih": 6852,
      "aralığında": 6853,
      "aranan": 6854,
      "aksatma": 6855,
      "doktoru": 6856,
      "mutlaka": 6857,
      "ayrıntılı": 6858,
      "ulaştığı": 6859,
      "ulaşmayan": 6860,
      "düşünerek": 6861,
      "......": 6862,
      "uyulmaması": 6863,
      "noktasına": 6864,
      "ödemesi": 6865,
      "rakam": 6866,
      "mümzileri": 6867,
      "çıkartılması": 6868,
      "ihtiva": 6869,
      "lüğünde": 6870,
      "kaçındığını": 6871,
      "ameliyattan": 6872,
      "hukukilik": 6873,
      "araştırmayla": 6874,
      "dayanmadığına": 6875,
      "partmanında": 6876,
      "Hastanesinden": 6877,
      "yoğunluğa": 6878,
      "söylendiği": 6879,
      "isimleri": 6880,
      "reddedilmiş": 6881,
      "sağladığı": 6882,
      "kendiliğinden": 6883,
      "süreçlerini": 6884,
      "istikrar": 6885,
      "incelemesinde": 6886,
      "hesabında": 6887,
      "teşhisiyle": 6888,
      "Noterliğinden": 6889,
      "parçanın": 6890,
      "Asgari": 6891,
      "burun": 6892,
      "grev": 6893,
      "celp": 6894,
      "işverendedir": 6895,
      "mahiyetinde": 6896,
      "alınamamasına": 6897,
      "bilindiğini": 6898,
      "ülke": 6899,
      "külfetinin": 6900,
      "OYDosyadaki": 6901,
      "savunulmuş": 6902,
      "politi": 6903,
      "ortaklık": 6904,
      "Departmanında": 6905,
      "32601": 6906,
      "fazlaca": 6907,
      "tecrüb": 6908,
      "derec": 6909,
      "bakıldığında": 6910,
      "örtüşmediği": 6911,
      "senelik": 6912,
      "epikriz": 6913,
      "edilemediğinden": 6914,
      "6294": 6915,
      "Fazla": 6916,
      "böbrek": 6917,
      "şifah": 6918,
      "tartışılması": 6919,
      "istifalarının": 6920,
      "tecrübesi": 6921,
      "LO": 6922,
      "ime": 6923,
      "iyorsa": 6924,
      "linin": 6925,
      "rılması": 6926,
      "ton": 6927,
      "zın": 6928,
      "İLO": 6929,
      "arız": 6930,
      "erte": 6931,
      "anal": 6932,
      "anayasanın": 6933,
      "olacaktır": 6934,
      "ememesi": 6935,
      "emiyorsa": 6936,
      "ürün": 6937,
      "laf": 6938,
      "iştirmektedir": 6939,
      "özür": 6940,
      "sözedilemeyecek": 6941,
      "açacağının": 6942,
      "uşak": 6943,
      "kırılması": 6944,
      "feshedilemeyeceği": 6945,
      "durumdan": 6946,
      "davranıştan": 6947,
      "bozuyor": 6948,
      "sebeplerde": 6949,
      "sebeplerdir": 6950,
      "gerekçesiz": 6951,
      "içermediği": 6952,
      "kaynaklandığını": 6953,
      "sağlığının": 6954,
      "mektu": 6955,
      "kullanıp": 6956,
      "geldiğinden": 6957,
      "gelmişse": 6958,
      "sendikalaş": 6959,
      "karşılama": 6960,
      "beklenemiyorsa": 6961,
      "değerlendirileceği": 6962,
      "görüldüğ": 6963,
      "formans": 6964,
      "verimliliğine": 6965,
      "soruya": 6966,
      "müşse": 6967,
      "istirahatin": 6968,
      "hastası": 6969,
      "bulunmadığına": 6970,
      "bulunmamakla": 6971,
      "farklıdır": 6972,
      "özelliğine": 6973,
      "tutanağ": 6974,
      "değerlendirmeler": 6975,
      "doku": 6976,
      "oluşu": 6977,
      "tekrarlanması": 6978,
      "yürütmesi": 6979,
      "yürütümüyle": 6980,
      "açıklamadan": 6981,
      "kazasıyla": 6982,
      "yöneticisine": 6983,
      "etkiliyor": 6984,
      "bahsedilen": 6985,
      "kişilerden": 6986,
      "husumetten": 6987,
      "hâlinin": 6988,
      "1995": 6989,
      "büyüklüğü": 6990,
      "ağırlıkları": 6991,
      "temelini": 6992,
      "prosedürü": 6993,
      "dönüş": 6994,
      "reddedilmesi": 6995,
      "cevaba": 6996,
      "uyumu": 6997,
      "destekler": 6998,
      "anlamıyla": 6999,
      "seviyeye": 7000,
      "şahsım": 7001,
      "Savunmasının": 7002,
      "mahiyettedir": 7003,
      "keyfilik": 7004,
      "rastlanmadığı": 7005,
      "pekiştirmektedir": 7006,
      "davasındaki": 7007,
      "taşımamakla": 7008,
      "OYİş": 7009,
      "savunulmuştur": 7010,
      "çökerte": 7011,
      "çökmüşse": 7012,
      "ulaşmamakla": 7013,
      "yumuşak": 7014,
      "kuşkusuzluğu": 7015,
      "kavuşturulacak": 7016,
      "silit": 7017,
      "aydınlığa": 7018,
      "tonsilit": 7019,
      "bozuyorsa": 7020,
      "çökertecek": 7021,
      "58": 7022,
      "Der": 7023,
      "Si": 7024,
      "Tek": 7025,
      "vc": 7026,
      "yacağına": 7027,
      "zı": 7028,
      "çuk": 7029,
      "dek": 7030,
      "alim": 7031,
      "işbu": 7032,
      "eklem": 7033,
      "ola": 7034,
      "etmeme": 7035,
      "oranda": 7036,
      "isel": 7037,
      "feshetmiştir": 7038,
      "gerekmekte": 7039,
      "ladığı": 7040,
      "yerlerine": 7041,
      "birisi": 7042,
      "birleştir": 7043,
      "aydan": 7044,
      "yapamaz": 7045,
      "yedi": 7046,
      "yedek": 7047,
      "aşması": 7048,
      "aşmasına": 7049,
      "aşacak": 7050,
      "özveri": 7051,
      "süremeyeceği": 7052,
      "makin": 7053,
      "davacıda": 7054,
      "buçuk": 7055,
      "dayanmasının": 7056,
      "dayandığına": 7057,
      "dayanamaz": 7058,
      "edildiğinin": 7059,
      "başından": 7060,
      "atan": 7061,
      "atfı": 7062,
      "savunmanın": 7063,
      "kalça": 7064,
      "durumları": 7065,
      "uyarının": 7066,
      "252": 7067,
      "konan": 7068,
      "anlatı": 7069,
      "yazılan": 7070,
      "gerekçelerini": 7071,
      "etmiştirDavalı": 7072,
      "elinde": 7073,
      "olanak": 7074,
      "hasten": 7075,
      "devamsızlığını": 7076,
      "lükleri": 7077,
      "kullanılabilmesi": 7078,
      "topar": 7079,
      "yeterliliğine": 7080,
      "isteğini": 7081,
      "sonrada": 7082,
      "olayla": 7083,
      "memeniz": 7084,
      "116": 7085,
      "105": 7086,
      "iddiada": 7087,
      "başlatılırsa": 7088,
      "hükmedilmiştir": 7089,
      "arttığını": 7090,
      "görülmekle": 7091,
      "ulandığı": 7092,
      "verimini": 7093,
      "görüle": 7094,
      "242": 7095,
      "konularda": 7096,
      "pres": 7097,
      "dolayısı": 7098,
      "istendiğinde": 7099,
      "fazladan": 7100,
      "sundu": 7101,
      "sunması": 7102,
      "sunulduğu": 7103,
      "uygulanmasına": 7104,
      "benim": 7105,
      "belgeleyen": 7106,
      "gerçekleştiğini": 7107,
      "gerçekleştiğinin": 7108,
      "doğrulandığı": 7109,
      "eylemler": 7110,
      "girdiğini": 7111,
      "sorunlar": 7112,
      "defada": 7113,
      "hastalıkların": 7114,
      "yararlanama": 7115,
      "kuruluşundan": 7116,
      "kişisel": 7117,
      "gözetilmesi": 7118,
      "Müdürlükleri": 7119,
      "firmasının": 7120,
      "yükümlülüğüne": 7121,
      "gitmesi": 7122,
      "adım": 7123,
      "sisteminden": 7124,
      "yazıyla": 7125,
      "ispatlayamadığından": 7126,
      "Süreci": 7127,
      "gelmemesinin": 7128,
      "geleceği": 7129,
      "sıfır": 7130,
      "düzelmemesi": 7131,
      "problemi": 7132,
      "yükümlülüklerini": 7133,
      "ınızı": 7134,
      "uyumlu": 7135,
      "parça": 7136,
      "uğratması": 7137,
      "batın": 7138,
      "duruşmasında": 7139,
      "edemeyeceği": 7140,
      "kullanıldığına": 7141,
      "Kaynakları": 7142,
      "psikoloj": 7143,
      "yolcuların": 7144,
      "Havalim": 7145,
      "korumak": 7146,
      "evrakınızı": 7147,
      "yakalandığını": 7148,
      "uydurmak": 7149,
      "branşlarda": 7150,
      "branşlardan": 7151,
      "Makul": 7152,
      "sıkıntılar": 7153,
      "standartlarına": 7154,
      "teyit": 7155,
      "belirtilmemişse": 7156,
      "görevliler": 7157,
      "aracılığıyla": 7158,
      "atfıyla": 7159,
      "devamsızlığınızı": 7160,
      "307": 7161,
      "BK": 7162,
      "Cuma": 7163,
      "Nis": 7164,
      "bür": 7165,
      "hir": 7166,
      "iyer": 7167,
      "pak": 7168,
      "rek": 7169,
      "risk": 7170,
      "İBK": 7171,
      "inc": 7172,
      "inter": 7173,
      "erna": 7174,
      "ertesi": 7175,
      "alab": 7176,
      "madığının": 7177,
      "esna": 7178,
      "akip": 7179,
      "olsay": 7180,
      "ilmesinin": 7181,
      "204": 7182,
      "lanmış": 7183,
      "tep": 7184,
      "yapacak": 7185,
      "desinden": 7186,
      "sürmüştür": 7187,
      "haklarını": 7188,
      "ışman": 7189,
      "danışman": 7190,
      "işyerini": 7191,
      "tiv": 7192,
      "belirlem": 7193,
      "atılan": 7194,
      "taraflara": 7195,
      "kalmadığı": 7196,
      "feshedildikten": 7197,
      "konul": 7198,
      "kaynaklan": 7199,
      "tanısı": 7200,
      "yönlerden": 7201,
      "düşmeye": 7202,
      "bıraktığı": 7203,
      "yerindedir": 7204,
      "üzerindeki": 7205,
      "gerk": 7206,
      "sendikası": 7207,
      "lerindeki": 7208,
      "izinler": 7209,
      "alterna": 7210,
      "şartlarda": 7211,
      "edilmediğinden": 7212,
      "bulunmadığının": 7213,
      "saatin": 7214,
      "müvekkilden": 7215,
      "oluşturarak": 7216,
      "yapmama": 7217,
      "adeta": 7218,
      "kurulunca": 7219,
      "araştırmalar": 7220,
      "açıklamalar": 7221,
      "sonuçlar": 7222,
      "müracaat": 7223,
      "tıkları": 7224,
      "aranmadığı": 7225,
      "çalışmalarına": 7226,
      "ulaşama": 7227,
      "gözetilmediği": 7228,
      "meyince": 7229,
      "görüşme": 7230,
      "maaşlarının": 7231,
      "niyete": 7232,
      "tamamının": 7233,
      "yaptırıp": 7234,
      "ifadesinden": 7235,
      "faaliyetleri": 7236,
      "gelmemek": 7237,
      "gelebilecek": 7238,
      "teşhisinin": 7239,
      "müteakip": 7240,
      "kaldırarak": 7241,
      "sigorta": 7242,
      "gru": 7243,
      "Bildir": 7244,
      "676": 7245,
      "ihtarnamede": 7246,
      "savsak": 7247,
      "karşılan": 7248,
      "Kurulunca": 7249,
      "imalatı": 7250,
      "olasılığı": 7251,
      "hattında": 7252,
      "dairemizin": 7253,
      "anlaşılama": 7254,
      "ibraname": 7255,
      "bitiminden": 7256,
      "Nisan": 7257,
      "internet": 7258,
      "esnada": 7259,
      "olsaydı": 7260,
      "düşmeyeceği": 7261,
      "alternatif": 7262,
      "GS": 7263,
      "besinde": 7264,
      "lılı": 7265,
      "oc": 7266,
      "oya": 7267,
      "par": 7268,
      "vaf": 7269,
      "ydı": 7270,
      "yır": 7271,
      "erv": 7272,
      "depos": 7273,
      "illi": 7274,
      "işlerinin": 7275,
      "verinin": 7276,
      "kargo": 7277,
      "ürdüğü": 7278,
      "2002": 7279,
      "isürdüğü": 7280,
      "habili": 7281,
      "alınmakla": 7282,
      "alınmalı": 7283,
      "aşan": 7284,
      "hakaret": 7285,
      "dırmak": 7286,
      "belgel": 7287,
      "açıldığını": 7288,
      "öngörüldüğü": 7289,
      "sözleşmesel": 7290,
      "edildiğinde": 7291,
      "bildiğini": 7292,
      "olmaz": 7293,
      "tarafınıza": 7294,
      "kaleme": 7295,
      "devamında": 7296,
      "davranmış": 7297,
      "uyarma": 7298,
      "ılamayacağı": 7299,
      "ilerisürdüğü": 7300,
      "yazısıyla": 7301,
      "anlaşıldıktan": 7302,
      "nedenlerde": 7303,
      "çalışmadan": 7304,
      "aber": 7305,
      "sağlığına": 7306,
      "kullanmanız": 7307,
      "getirt": 7308,
      "getirilmiş": 7309,
      "110": 7310,
      "111": 7311,
      "belirlendiği": 7312,
      "106": 7313,
      "109": 7314,
      "1011": 7315,
      "geçilecektir": 7316,
      "hastalanmasından": 7317,
      "kıdeminin": 7318,
      "beyanın": 7319,
      "başlatılması": 7320,
      "gösterilmemesi": 7321,
      "toplamının": 7322,
      "yıcı": 7323,
      "atıf": 7324,
      "muhata": 7325,
      "muvaf": 7326,
      "aksadığını": 7327,
      "izinli": 7328,
      "izinleri": 7329,
      "güce": 7330,
      "istirahatini": 7331,
      "delillerini": 7332,
      "tutarının": 7333,
      "tutarından": 7334,
      "sürdürdüğü": 7335,
      "kazanmadığı": 7336,
      "saatten": 7337,
      "işlemini": 7338,
      "keza": 7339,
      "2349": 7340,
      "mazerete": 7341,
      "usulden": 7342,
      "Sonraki": 7343,
      "mıydı": 7344,
      "etkilenmişse": 7345,
      "tutanaklarından": 7346,
      "yasada": 7347,
      "migr": 7348,
      "aksattığına": 7349,
      "tekrarlaması": 7350,
      "dayanaksız": 7351,
      "ulaşması": 7352,
      "hiçbirine": 7353,
      "bayramlarda": 7354,
      "meyip": 7355,
      "uzunca": 7356,
      "incelenmesinden": 7357,
      "etmelidir": 7358,
      "ödeyerek": 7359,
      "banko": 7360,
      "çıkartıl": 7361,
      "ortamında": 7362,
      "ihlale": 7363,
      "yaptırıma": 7364,
      "işverenliğe": 7365,
      "ağırlıklı": 7366,
      "reddetmesinin": 7367,
      "vermeyeceğini": 7368,
      "isnad": 7369,
      "ınızın": 7370,
      "yararlanılama": 7371,
      "mesleki": 7372,
      "içtihatları": 7373,
      "Noterliğinin": 7374,
      "gelmediğine": 7375,
      "yönetime": 7376,
      "987": 7377,
      "aslının": 7378,
      "yaşadığını": 7379,
      "bağlamak": 7380,
      "aşamasına": 7381,
      "taahhüt": 7382,
      "geliştirme": 7383,
      "uyarılarına": 7384,
      "cezalandırmak": 7385,
      "olduğumdan": 7386,
      "akitleri": 7387,
      "arttırdığını": 7388,
      "irdelendiğinde": 7389,
      "ışığında": 7390,
      "kaçınmaktır": 7391,
      "olasılığından": 7392,
      "habilitasyon": 7393,
      "belgelemesi": 7394,
      "muhataba": 7395,
      "muvafak": 7396,
      "23499": 7397,
      "migren": 7398,
      "(...": 7399,
      "600": 7400,
      "Cum": 7401,
      "Hast": 7402,
      "Zira": 7403,
      "dolmuş": 7404,
      "fot": 7405,
      "lâ": 7406,
      "lişk": 7407,
      "ren": 7408,
      "tlerinden": 7409,
      "yurt": 7410,
      "zer": 7411,
      "öte": 7412,
      "İlişk": 7413,
      "şem": 7414,
      "“..": 7415,
      "erer": 7416,
      "ildiğine": 7417,
      "işlerden": 7418,
      "işgünlerinde": 7419,
      "mahal": 7420,
      "birinin": 7421,
      "ondan": 7422,
      "mesle": 7423,
      "İşgünü": 7424,
      "Mazer": 7425,
      "gidildiği": 7426,
      "çalışılma": 7427,
      "çalışabilecek": 7428,
      "atmak": 7429,
      "bulunmar": 7430,
      "olmadık": 7431,
      "günüy": 7432,
      "Özetle": 7433,
      "ölümü": 7434,
      "boya": 7435,
      "ülmesine": 7436,
      "186": 7437,
      "başvurduğu": 7438,
      "azalt": 7439,
      "anlaşılmalıdır": 7440,
      "tanır": 7441,
      "toplanması": 7442,
      "arkaya": 7443,
      "devamsızlıklar": 7444,
      "alıkları": 7445,
      "doğmaz": 7446,
      "istinafa": 7447,
      "193": 7448,
      "ahlâ": 7449,
      "konulara": 7450,
      "prim": 7451,
      "gerçekleşmediğinin": 7452,
      "ılmasıyla": 7453,
      "esaslara": 7454,
      "tanımaktadır": 7455,
      "mevcutsa": 7456,
      "kısmi": 7457,
      "reddedil": 7458,
      "tatilinde": 7459,
      "ulaşılmasıyla": 7460,
      "zararın": 7461,
      "değerlendirilir": 7462,
      "kaçıncı": 7463,
      "yansıtmadığına": 7464,
      "ifadesi": 7465,
      "değiştirilmesi": 7466,
      "benzerlerinin": 7467,
      "kriterlerin": 7468,
      "sırlarını": 7469,
      "sıralanmış": 7470,
      "önlemleri": 7471,
      "kadro": 7472,
      "çıkarılmaya": 7473,
      "çelişki": 7474,
      "fertlerinden": 7475,
      "itibarıyle": 7476,
      "edemeyeceğini": 7477,
      "sürülüp": 7478,
      "Devamsızlığın": 7479,
      "yakınlarının": 7480,
      "imkânının": 7481,
      "Görüldüğü": 7482,
      "bilirkişilik": 7483,
      "mahkememizde": 7484,
      "oluşturabilir": 7485,
      "Yapılacak": 7486,
      "ihtimaline": 7487,
      "araştırılmalıdır": 7488,
      "eleştiri": 7489,
      "değinilen": 7490,
      "takvim": 7491,
      "Cumartesi": 7492,
      "Hastalıkları": 7493,
      "Mazeretin": 7494,
      "çalışılmaması": 7495,
      "bulunmarız": 7496,
      "olmadıkça": 7497,
      "günüyse": 7498,
      "ahlâk": 7499,
      "88": 7500,
      "Edit": 7501,
      "Yük": 7502,
      "ase": 7503,
      "bı": 7504,
      "beti": 7505,
      "ke": 7506,
      "min": 7507,
      "yir": 7508,
      "yık": 7509,
      "enjit": 7510,
      "vermesini": 7511,
      "lardır": 7512,
      "ilebilir": 7513,
      "onik": 7514,
      "etici": 7515,
      "çalışmasını": 7516,
      "str": 7517,
      "stres": 7518,
      "olmamıştır": 7519,
      "günlerine": 7520,
      "yapılmıştır": 7521,
      "kıya": 7522,
      "tansiyon": 7523,
      "getirilmediği": 7524,
      "görevsizlik": 7525,
      "almamıştır": 7526,
      "önemine": 7527,
      "görülmemektedir": 7528,
      "altma": 7529,
      "edileceğinin": 7530,
      "sürdürülmesine": 7531,
      "işleminden": 7532,
      "farenjit": 7533,
      "eylemli": 7534,
      "örneği": 7535,
      "cezasının": 7536,
      "boşaltma": 7537,
      "Fesihten": 7538,
      "kastından": 7539,
      "onayının": 7540,
      "etmeliğinin": 7541,
      "onanmasını": 7542,
      "yazısına": 7543,
      "getirmediğiniz": 7544,
      "yararlanır": 7545,
      "parçalı": 7546,
      "gelmediğiniz": 7547,
      "Yönetmeliğinin": 7548,
      "Operat": 7549,
      "tavırları": 7550,
      "münase": 7551,
      "kağıdı": 7552,
      "Editör": 7553,
      "Yüksek": 7554,
      "yirmi": 7555,
      "münasebeti": 7556,
      "230": 7557,
      "Tan": 7558,
      "aalı": 7559,
      "yaban": 7560,
      "geçerliliğine": 7561,
      "açılma": 7562,
      "harcamalar": 7563,
      "sebeplerine": 7564,
      "geliş": 7565,
      "belirlenmiş": 7566,
      "178": 7567,
      "alarına": 7568,
      "280": 7569,
      "arkadaşlarından": 7570,
      "dilekçesinin": 7571,
      "kayıtlarında": 7572,
      "taşımayan": 7573,
      "engelleyen": 7574,
      "sunulmamıştır": 7575,
      "bünyesindeki": 7576,
      "kendiler": 7577,
      "zedelenmiştir": 7578,
      "çıkışı": 7579,
      "koyduğunu": 7580,
      "ilişkide": 7581,
      "sıfatını": 7582,
      "çabalarına": 7583,
      "muvazaalı": 7584,
      "puan": 7585,
      "Tanık": 7586,
      "olamayacağını": 7587,
      "olarında": 7588,
      "açmasının": 7589,
      "feshedildi": 7590,
      "akdiniz": 7591,
      "çalışmada": 7592,
      "laştır": 7593,
      "bilgisi": 7594,
      "çıkarmayı": 7595,
      "organik": 7596,
      "söylenmesine": 7597,
      "sağlamak": 7598,
      "duyurulduğu": 7599,
      "Şirketin": 7600,
      "panolarında": 7601,
      "76": 7602,
      "Ban": 7603,
      "gisi": 7604,
      "edildi": 7605,
      "başkan": 7606,
      "savunmasına": 7607,
      "müfet": 7608,
      "başladı": 7609,
      "tesbit": 7610,
      "katılımı": 7611,
      "operasyonları": 7612,
      "hastanenin": 7613,
      "hastanesinde": 7614,
      "doktordan": 7615,
      "hukuku": 7616,
      "iddialarını": 7617,
      "teşhis": 7618,
      "başarısız": 7619,
      "Hava": 7620,
      "oluşturabilecek": 7621,
      "çözme": 7622,
      "geniş": 7623,
      "Banka": 7624,
      "müfett": 7625,
      "337": 7626,
      "420": 7627,
      "422": 7628,
      "470": 7629,
      "56": 7630,
      "527": 7631,
      "62": 7632,
      "738": 7633,
      "950": 7634,
      "965": 7635,
      "At": 7636,
      "Aile": 7637,
      "Atat": 7638,
      "Boz": 7639,
      "Bele": 7640,
      "CMM": 7641,
      "DÜ": 7642,
      "Er": 7643,
      "Etik": 7644,
      "Esk": 7645,
      "Gere": 7646,
      "Hekim": 7647,
      "KİR": 7648,
      "Kişinin": 7649,
      "Klinik": 7650,
      "LER": 7651,
      "Md": 7652,
      "Medi": 7653,
      "Pos": 7654,
      "Pazarlama": 7655,
      "SO": 7656,
      "Sür": 7657,
      "Sat": 7658,
      "Stan": 7659,
      "Uzm": 7660,
      "ZEL": 7661,
      "ail": 7662,
      "ağını": 7663,
      "bında": 7664,
      "cılı": 7665,
      "cunu": 7666,
      "cileri": 7667,
      "cana": 7668,
      "dun": 7669,
      "ddi": 7670,
      "dini": 7671,
      "dyol": 7672,
      "fından": 7673,
      "fık": 7674,
      "fter": 7675,
      "gayr": 7676,
      "ho": 7677,
      "hür": 7678,
      "hret": 7679,
      "ikal": 7680,
      "ibinin": 7681,
      "iyasa": 7682,
      "küs": 7683,
      "ll": 7684,
      "lo": 7685,
      "lom": 7686,
      "mına": 7687,
      "marka": 7688,
      "mizin": 7689,
      "nda": 7690,
      "nunun": 7691,
      "nağ": 7692,
      "one": 7693,
      "omu": 7694,
      "piyasa": 7695,
      "ru": 7696,
      "riyeti": 7697,
      "rup": 7698,
      "ralarda": 7699,
      "sinden": 7700,
      "tin": 7701,
      "vil": 7702,
      "vlarında": 7703,
      "vası": 7704,
      "yem": 7705,
      "yüz": 7706,
      "ymış": 7707,
      "yalıdır": 7708,
      "yünü": 7709,
      "zira": 7710,
      "Ülk": 7711,
      "âyet": 7712,
      "çar": 7713,
      "çli": 7714,
      "çünkü": 7715,
      "öhret": 7716,
      "ğince": 7717,
      "İM": 7718,
      "İSO": 7719,
      "İddi": 7720,
      "ıı": 7721,
      "şik": 7722,
      "şru": 7723,
      "şöhret": 7724,
      "inli": 7725,
      "ınması": 7726,
      "arişinin": 7727,
      "dasında": 7728,
      "dayalıdır": 7729,
      "delik": 7730,
      "delerine": 7731,
      "defter": 7732,
      "ildikten": 7733,
      "ilyas": 7734,
      "altan": 7735,
      "aldıktan": 7736,
      "anlara": 7737,
      "mat": 7738,
      "maili": 7739,
      "mayı": 7740,
      "masada": 7741,
      "eski": 7742,
      "ekli": 7743,
      "etapta": 7744,
      "ettin": 7745,
      "yabında": 7746,
      "disp": 7747,
      "lisi": 7748,
      "likit": 7749,
      "veremeye": 7750,
      "verdiğine": 7751,
      "vermelidir": 7752,
      "verememesi": 7753,
      "vergisi": 7754,
      "leye": 7755,
      "neği": 7756,
      "saiki": 7757,
      "dığu": 7758,
      "kadın": 7759,
      "orada": 7760,
      "oradan": 7761,
      "denmek": 7762,
      "denilmektedir": 7763,
      "raj": 7764,
      "radyol": 7765,
      "ulmuş": 7766,
      "beye": 7767,
      "ürk": 7768,
      "üründe": 7769,
      "ürüne": 7770,
      "ileceğinin": 7771,
      "iznin": 7772,
      "izlemek": 7773,
      "tada": 7774,
      "tafından": 7775,
      "tirmemesi": 7776,
      "tirilmeden": 7777,
      "gerekme": 7778,
      "gerekeceği": 7779,
      "porsiyon": 7780,
      "tıra": 7781,
      "tısız": 7782,
      "las": 7783,
      "laşıl": 7784,
      "lamaya": 7785,
      "ladıklarını": 7786,
      "lamadan": 7787,
      "yerin": 7788,
      "yerini": 7789,
      "yerlerinde": 7790,
      "birine": 7791,
      "birleş": 7792,
      "lanır": 7793,
      "lanıyordu": 7794,
      "teşek": 7795,
      "verenlikte": 7796,
      "iliyordu": 7797,
      "tarihler": 7798,
      "tarihlı": 7799,
      "tarihini": 7800,
      "tarihsiz": 7801,
      "tarihlere": 7802,
      "umuz": 7803,
      "bulur": 7804,
      "buluş": 7805,
      "hayat": 7806,
      "hayatı": 7807,
      "hatıra": 7808,
      "yapmasına": 7809,
      "yapısı": 7810,
      "iştiric": 7811,
      "gördüğüm": 7812,
      "ğıda": 7813,
      "aşılması": 7814,
      "aştığının": 7815,
      "aşıyor": 7816,
      "aştığından": 7817,
      "özgeçmiş": 7818,
      "sürmüş": 7819,
      "hakka": 7820,
      "haklılı": 7821,
      "verilmemiştir": 7822,
      "ışları": 7823,
      "leşme": 7824,
      "dırmaya": 7825,
      "çalışanla": 7826,
      "çalışmasından": 7827,
      "çalışıyordu": 7828,
      "sayılamayacağını": 7829,
      "yaret": 7830,
      "yaramayacağı": 7831,
      "kime": 7832,
      "belinden": 7833,
      "açmayan": 7834,
      "açılmayan": 7835,
      "meşru": 7836,
      "tij": 7837,
      "stes": 7838,
      "öngörülmemiştir": 7839,
      "önlenmeye": 7840,
      "..\"": 7841,
      "sözleşmen": 7842,
      "amını": 7843,
      "amenin": 7844,
      "dayanılan": 7845,
      "dayandıkları": 7846,
      "edilir": 7847,
      "işehir": 7848,
      "imiz": 7849,
      "imize": 7850,
      "başar": 7851,
      "başta": 7852,
      "başım": 7853,
      "başındaki": 7854,
      "başlığını": 7855,
      "soncunu": 7856,
      "bildik": 7857,
      "maddesinden": 7858,
      "amayacağına": 7859,
      "bulunmak": 7860,
      "bulunacağını": 7861,
      "bulunduk": 7862,
      "bulunmalarını": 7863,
      "bulundığu": 7864,
      "sızlığı": 7865,
      "olmayacak": 7866,
      "tarafının": 7867,
      "günlerini": 7868,
      "savunan": 7869,
      "kabulün": 7870,
      "bitirmemesi": 7871,
      "süreden": 7872,
      "yetmediği": 7873,
      "Karara": 7874,
      "kalacak": 7875,
      "kalacağı": 7876,
      "kaldığının": 7877,
      "kalitesi": 7878,
      "yapılmasında": 7879,
      "yapılabilmesi": 7880,
      "yapılamayacağı": 7881,
      "yapılamayacağını": 7882,
      "devamına": 7883,
      "devamlılık": 7884,
      "belirtmeyen": 7885,
      "belirtildikten": 7886,
      "tırmaya": 7887,
      "uymak": 7888,
      "uyuşmaz": 7889,
      "uyup": 7890,
      "feshedildiğine": 7891,
      "eşliğinde": 7892,
      "uyarmış": 7893,
      "davranışlarında": 7894,
      "251": 7895,
      "2547": 7896,
      "şeklen": 7897,
      "kaynağ": 7898,
      "yargılamayı": 7899,
      "0042": 7900,
      "konut": 7901,
      "konlarda": 7902,
      "konrol": 7903,
      "bildirse": 7904,
      "bildirmesi": 7905,
      "bildirilmemiştir": 7906,
      "bildirime": 7907,
      "talar": 7908,
      "anlama": 7909,
      "yaptığımız": 7910,
      "iklini": 7911,
      "yazan": 7912,
      "yazdığını": 7913,
      "yazılmasına": 7914,
      "yazılması": 7915,
      "yazdıklarını": 7916,
      "içindeyken": 7917,
      "değilim": 7918,
      "gerekçelerinde": 7919,
      "bozdun": 7920,
      "ilişkilerine": 7921,
      "üldüğünü": 7922,
      "verildiğine": 7923,
      "182": 7924,
      "yollardan": 7925,
      "yoluyla": 7926,
      "içermekte": 7927,
      "kantada": 7928,
      "etkin": 7929,
      "azaltı": 7930,
      "azaltan": 7931,
      "anlaşılmaktaysa": 7932,
      "okut": 7933,
      "okuyup": 7934,
      "kaynakları": 7935,
      "ilgilendir": 7936,
      "idari": 7937,
      "iddasında": 7938,
      "ısına": 7939,
      "devamsızlığa": 7940,
      "uygunu": 7941,
      "nedenlerinden": 7942,
      "taleple": 7943,
      "taleplerin": 7944,
      "örerken": 7945,
      "başlamadığını": 7946,
      "başladıktan": 7947,
      "malını": 7948,
      "malları": 7949,
      "malların": 7950,
      "turnik": 7951,
      "sağlar": 7952,
      "kullanılmasına": 7953,
      "kullanacağı": 7954,
      "kullanılarak": 7955,
      "kullanmaya": 7956,
      "kullandıktan": 7957,
      "şirketinin": 7958,
      "toplamadan": 7959,
      "gelirken": 7960,
      "gelmi": 7961,
      "tiğine": 7962,
      "dosyasından": 7963,
      "getirildiğini": 7964,
      "istediğinde": 7965,
      "istediklerini": 7966,
      "beklemek": 7967,
      "görevdeki": 7968,
      "olayında": 7969,
      "çalışana": 7970,
      "kesinti": 7971,
      "almasıyla": 7972,
      "11965": 7973,
      "sağlıklı": 7974,
      "düşünü": 7975,
      "düşmekte": 7976,
      "niye": 7977,
      "bırakmak": 7978,
      "bırakmadığı": 7979,
      "bırakmasının": 7980,
      "bırakılmış": 7981,
      "Daireleri": 7982,
      "incelet": 7983,
      "ağlarını": 7984,
      "geçerek": 7985,
      "geçildiğini": 7986,
      "geçtiğinden": 7987,
      "ANMASINA": 7988,
      "menlik": 7989,
      "menüs": 7990,
      "rahatsızlığını": 7991,
      "rahatsızlandığını": 7992,
      "kapak": 7993,
      "kapsar": 7994,
      "önemlidir": 7995,
      "içeriğinin": 7996,
      "çekmek": 7997,
      "çekip": 7998,
      "çektiğini": 7999,
      "çokluğu": 8000,
      "doğmasına": 8001,
      "doğmuştur": 8002,
      "beklenmez": 8003,
      "122": 8004,
      "123": 8005,
      "127": 8006,
      "dayandığıgerekçesi": 8007,
      "herkesi": 8008,
      "herşeyden": 8009,
      "196": 8010,
      "Gerekçe4857": 8011,
      "ilmeleri": 8012,
      "sayıldığını": 8013,
      "sayılacağı": 8014,
      "bununda": 8015,
      "ihbaren": 8016,
      "çıkarılmasına": 8017,
      "çıkarıp": 8018,
      "çıkarmaları": 8019,
      "çıkardıktan": 8020,
      "test": 8021,
      "değerlendirilmesinde": 8022,
      "göstermesi": 8023,
      "gösterilmeksizin": 8024,
      "gösterilmemiştir": 8025,
      "isteminde": 8026,
      "istemenin": 8027,
      "itibarına": 8028,
      "Mahkemelerince": 8029,
      "görülmemesi": 8030,
      "varında": 8031,
      "zorlanıyordu": 8032,
      "sonucun": 8033,
      "hükümde": 8034,
      "hükümsüz": 8035,
      "ilişkinlerine": 8036,
      "muaf": 8037,
      "aksama": 8038,
      "civarında": 8039,
      "bozulmuştur": 8040,
      "etkilediğinden": 8041,
      "Yasaya": 8042,
      "sorduklarını": 8043,
      "görülerek": 8044,
      "tuttu": 8045,
      "tutmadığını": 8046,
      "tutulup": 8047,
      "bakarım": 8048,
      "istirahatli": 8049,
      "şartlarını": 8050,
      "şartlarındaki": 8051,
      "lemeden": 8052,
      "delalet": 8053,
      "yonluk": 8054,
      "bileceğinden": 8055,
      "yılındaki": 8056,
      "düzenlenilmemesi": 8057,
      "uçuşu": 8058,
      "uçuşları": 8059,
      "deliline": 8060,
      "delilini": 8061,
      "gereğincede": 8062,
      "konuya": 8063,
      "katılması": 8064,
      "görmedi": 8065,
      "çalıştığınız": 8066,
      "istenmediği": 8067,
      "istenmemiştir": 8068,
      "sürdürmesinin": 8069,
      "metin": 8070,
      "metni": 8071,
      "metraj": 8072,
      "sunamadığı": 8073,
      "gerektirmediğinden": 8074,
      "hastaymış": 8075,
      "ayasa": 8076,
      "ayağında": 8077,
      "planladığını": 8078,
      "planlamalarını": 8079,
      "dinledikten": 8080,
      "dinlemeden": 8081,
      "miktarın": 8082,
      "sınavlarında": 8083,
      "kesinleştiği": 8084,
      "kesinleşene": 8085,
      "dayandırıldığı": 8086,
      "personeldi": 8087,
      "352": 8088,
      "uygulanarak": 8089,
      "uygulanmadığı": 8090,
      "hizmetler": 8091,
      "hizmetlerin": 8092,
      "hizmetlerini": 8093,
      "tespitin": 8094,
      "tespitlerine": 8095,
      "belgede": 8096,
      "belgeyi": 8097,
      "Anılan": 8098,
      "Anayasa": 8099,
      "takdiri": 8100,
      "dönemdir": 8101,
      "gönderilmesi": 8102,
      "gönderilecek": 8103,
      "214": 8104,
      "gerçekleşmemesi": 8105,
      "gerçekleştikten": 8106,
      "kazanıldığı": 8107,
      "gıyabında": 8108,
      "Yarışları": 8109,
      "272": 8110,
      "mahsus": 8111,
      "çalıştırmak": 8112,
      "286": 8113,
      "saatlerinde": 8114,
      "düşürmesi": 8115,
      "işlemi": 8116,
      "zamanlı": 8117,
      "oluşturma": 8118,
      "oluşturmaz": 8119,
      "dinlenmesine": 8120,
      "dinlenmeden": 8121,
      "sabitledikten": 8122,
      "233": 8123,
      "238": 8124,
      "bilgiye": 8125,
      "kurulduğunu": 8126,
      "siparişinin": 8127,
      "tutanağını": 8128,
      "160": 8129,
      "faydalanamaması": 8130,
      "girmediğini": 8131,
      "girişinin": 8132,
      "birimi": 8133,
      "çıkma": 8134,
      "çıkmadığını": 8135,
      "çıkıp": 8136,
      "açıklamış": 8137,
      "kuralları": 8138,
      "operasyonda": 8139,
      "ERİM": 8140,
      "sorunların": 8141,
      "değerlendirmeyle": 8142,
      "değerlendirmeleri": 8143,
      "üretimin": 8144,
      "etkilenme": 8145,
      "defaya": 8146,
      "sonuçta": 8147,
      "sonuçlarının": 8148,
      "sonuçlanması": 8149,
      "İŞLER": 8150,
      "önelinden": 8151,
      "hastalıklarına": 8152,
      "rahatsızlıklara": 8153,
      "rahatsızlıkların": 8154,
      "programı": 8155,
      "programında": 8156,
      "tutanakla": 8157,
      "mesailere": 8158,
      "bordr": 8159,
      "luğunun": 8160,
      "tanıyarak": 8161,
      "yasadan": 8162,
      "koşulunun": 8163,
      "mayadığı": 8164,
      "Hakları": 8165,
      "itirazda": 8166,
      "adres": 8167,
      "gerçekleştirdiğini": 8168,
      "gerçekleştirildiği": 8169,
      "fiili": 8170,
      "acağında": 8171,
      "mide": 8172,
      "işletmenlik": 8173,
      "amirine": 8174,
      "tıklarını": 8175,
      "erdirilen": 8176,
      "erdirilmiştir": 8177,
      "erdirileceğinin": 8178,
      "Fesihte": 8179,
      "doğurmakta": 8180,
      "oluşmasına": 8181,
      "badem": 8182,
      "batırmaya": 8183,
      "LEREK": 8184,
      "yaşı": 8185,
      "aranmaz": 8186,
      "geçirip": 8187,
      "geçirecek": 8188,
      "aksattığının": 8189,
      "itede": 8190,
      "bulunulmadığını": 8191,
      "bulunulmamıştır": 8192,
      "Alma": 8193,
      "ettirdiğini": 8194,
      "işledikleri": 8195,
      "alacaklara": 8196,
      "iyenin": 8197,
      "imzadan": 8198,
      "resme": 8199,
      "sınıfı": 8200,
      "haberleşme": 8201,
      "hiçbirini": 8202,
      "kontrolünde": 8203,
      "kontrolünün": 8204,
      "kontrolsüz": 8205,
      "bayramının": 8206,
      "onaylanması": 8207,
      "onaylandığı": 8208,
      "bölümündeki": 8209,
      "Müdürlüğünde": 8210,
      "firmasına": 8211,
      "ilkesinede": 8212,
      "sahibinin": 8213,
      "müdürün": 8214,
      "müdürünün": 8215,
      "huzuru": 8216,
      ".......": 8217,
      "görüşüldüğünü": 8218,
      "proses": 8219,
      "zarardan": 8220,
      "gittik": 8221,
      "sınırlama": 8222,
      "serinin": 8223,
      "sonrasındaki": 8224,
      "işleyişinde": 8225,
      "hazırlayarak": 8226,
      "oji": 8227,
      "personelimizin": 8228,
      "şikayetlerinde": 8229,
      "uyulmadan": 8230,
      "taşımadığından": 8231,
      "ödemekle": 8232,
      "kanıtlanmamış": 8233,
      "müşteriyle": 8234,
      "ONANMASINA": 8235,
      "geleni": 8236,
      "doğrulmaktadır": 8237,
      "çıkarılmış": 8238,
      "çıkarıldığına": 8239,
      "sevkine": 8240,
      "barışında": 8241,
      "yansıtılmıştır": 8242,
      "bilgilenme": 8243,
      "kesintisi": 8244,
      "nitelendirilmesine": 8245,
      "vardiyada": 8246,
      "vardiyaya": 8247,
      "uğradığı": 8248,
      "uğramasına": 8249,
      "çıkarmadık": 8250,
      "kredileri": 8251,
      "söylediğinde": 8252,
      "söylediklerini": 8253,
      "tekniker": 8254,
      "varılmaktadır": 8255,
      "varılmakla": 8256,
      "unsurlarından": 8257,
      "lamada": 8258,
      "organlarının": 8259,
      "yaptırılıp": 8260,
      "söylemiş": 8261,
      "ameliyatın": 8262,
      "ameliyatla": 8263,
      "duyuma": 8264,
      "363": 8265,
      "Sanatçısı": 8266,
      "Birsen": 8267,
      "bağlantı": 8268,
      "bağlandığını": 8269,
      "bağlanmaktadır": 8270,
      "Kalite": 8271,
      "hukukumuz": 8272,
      "toplantıdaki": 8273,
      "toplantısında": 8274,
      "yazıyı": 8275,
      "şoföre": 8276,
      "şoförün": 8277,
      "içeriklerde": 8278,
      "firmayı": 8279,
      "başvurularının": 8280,
      "örgütlü": 8281,
      "hâkime": 8282,
      "adam": 8283,
      "hatırlaya": 8284,
      "kesilmesine": 8285,
      "kesildiğini": 8286,
      "kesilmediğini": 8287,
      "iyiniyetli": 8288,
      "ispatlayamadığını": 8289,
      "Merkezinde": 8290,
      "kâğıda": 8291,
      "sanayi": 8292,
      "nitelikteki": 8293,
      "imzalayarak": 8294,
      "Herkes": 8295,
      "1997": 8296,
      "otom": 8297,
      "kusuru": 8298,
      "bizim": 8299,
      "malzemelerinin": 8300,
      "günlerdeki": 8301,
      "öğrendiğini": 8302,
      "zarfı": 8303,
      "işçileride": 8304,
      "ilkesiyle": 8305,
[...]
